#include "magic_wand_model_data.h"

// We need to keep the data array aligned on some architectures.
#ifdef __has_attribute
#define HAVE_ATTRIBUTE(x) __has_attribute(x)
#else
#define HAVE_ATTRIBUTE(x) 0
#endif
#if HAVE_ATTRIBUTE(aligned) || (defined(__GNUC__) && !defined(__clang__))
#define DATA_ALIGN_ATTRIBUTE __attribute__((aligned(4)))
#else
#define DATA_ALIGN_ATTRIBUTE
#endif

const unsigned char g_magic_wand_model_data[] DATA_ALIGN_ATTRIBUTE = {
  // Paste the data of the char array in `src/model.cc` here
  0x1c, 0x00, 0x00, 0x00, 0x54, 0x46, 0x4c, 0x33, 0x14, 0x00, 0x20, 0x00,
  0x04, 0x00, 0x08, 0x00, 0x0c, 0x00, 0x10, 0x00, 0x14, 0x00, 0x00, 0x00,
  0x18, 0x00, 0x1c, 0x00, 0x14, 0x00, 0x00, 0x00, 0x03, 0x00, 0x00, 0x00,
  0x18, 0x00, 0x00, 0x00, 0x2c, 0x00, 0x00, 0x00, 0xd8, 0x00, 0x00, 0x00,
  0x2c, 0x00, 0x00, 0x00, 0x80, 0x00, 0x00, 0x00, 0x78, 0x00, 0x00, 0x00,
  0x05, 0x00, 0x00, 0x00, 0x28, 0x07, 0x00, 0x00, 0x44, 0x06, 0x00, 0x00,
  0xbc, 0x03, 0x00, 0x00, 0xf8, 0x02, 0x00, 0x00, 0xac, 0x01, 0x00, 0x00,
  0x01, 0x00, 0x00, 0x00, 0xd0, 0x00, 0x00, 0x00, 0x14, 0x00, 0x00, 0x00,
  0xdc, 0x32, 0x00, 0x00, 0xd8, 0x32, 0x00, 0x00, 0xd0, 0x31, 0x00, 0x00,
  0x1c, 0x31, 0x00, 0x00, 0x74, 0x30, 0x00, 0x00, 0xfc, 0x2f, 0x00, 0x00,
  0x90, 0x2f, 0x00, 0x00, 0x40, 0x13, 0x00, 0x00, 0xec, 0x11, 0x00, 0x00,
  0x10, 0x10, 0x00, 0x00, 0xb4, 0x07, 0x00, 0x00, 0xb0, 0x32, 0x00, 0x00,
  0xac, 0x32, 0x00, 0x00, 0xa8, 0x32, 0x00, 0x00, 0xa4, 0x32, 0x00, 0x00,
  0xa0, 0x32, 0x00, 0x00, 0x9c, 0x32, 0x00, 0x00, 0x98, 0x32, 0x00, 0x00,
  0x94, 0x32, 0x00, 0x00, 0x3c, 0x00, 0x00, 0x00, 0x00, 0x00, 0x00, 0x00,
  0x01, 0x00, 0x00, 0x00, 0x0c, 0x00, 0x00, 0x00, 0x08, 0x00, 0x0c, 0x00,
  0x04, 0x00, 0x08, 0x00, 0x08, 0x00, 0x00, 0x00, 0x08, 0x00, 0x00, 0x00,
  0x13, 0x00, 0x00, 0x00, 0x13, 0x00, 0x00, 0x00, 0x6d, 0x69, 0x6e, 0x5f,
  0x72, 0x75, 0x6e, 0x74, 0x69, 0x6d, 0x65, 0x5f, 0x76, 0x65, 0x72, 0x73,
  0x69, 0x6f, 0x6e, 0x00, 0xb6, 0xce, 0xff, 0xff, 0x04, 0x00, 0x00, 0x00,
  0x10, 0x00, 0x00, 0x00, 0x31, 0x2e, 0x35, 0x2e, 0x30, 0x00, 0x00, 0x00,
  0x00, 0x00, 0x00, 0x00, 0x00, 0x00, 0x00, 0x00, 0x0f, 0x00, 0x00, 0x00,
  0x4d, 0x4c, 0x49, 0x52, 0x20, 0x43, 0x6f, 0x6e, 0x76, 0x65, 0x72, 0x74,
  0x65, 0x64, 0x2e, 0x00, 0x00, 0x00, 0x0e, 0x00, 0x18, 0x00, 0x04, 0x00,
  0x08, 0x00, 0x0c, 0x00, 0x10, 0x00, 0x14, 0x00, 0x0e, 0x00, 0x00, 0x00,
  0x14, 0x00, 0x00, 0x00, 0x5c, 0x00, 0x00, 0x00, 0x60, 0x00, 0x00, 0x00,
  0x64, 0x00, 0x00, 0x00, 0x84, 0x00, 0x00, 0x00, 0x12, 0x00, 0x00, 0x00,
  0x9c, 0x31, 0x00, 0x00, 0x2c, 0x31, 0x00, 0x00, 0x88, 0x30, 0x00, 0x00,
  0xe0, 0x2f, 0x00, 0x00, 0x38, 0x2f, 0x00, 0x00, 0xd4, 0x2e, 0x00, 0x00,
  0x6c, 0x2e, 0x00, 0x00, 0x18, 0x12, 0x00, 0x00, 0xbc, 0x10, 0x00, 0x00,
  0xe0, 0x0e, 0x00, 0x00, 0x0c, 0x06, 0x00, 0x00, 0x28, 0x05, 0x00, 0x00,
  0xe8, 0x03, 0x00, 0x00, 0x3c, 0x03, 0x00, 0x00, 0x98, 0x02, 0x00, 0x00,
  0xd4, 0x01, 0x00, 0x00, 0x10, 0x01, 0x00, 0x00, 0x84, 0x00, 0x00, 0x00,
  0x01, 0x00, 0x00, 0x00, 0x00, 0x00, 0x00, 0x00, 0x01, 0x00, 0x00, 0x00,
  0x11, 0x00, 0x00, 0x00, 0x08, 0x00, 0x00, 0x00, 0x74, 0x05, 0x00, 0x00,
  0x94, 0x04, 0x00, 0x00, 0x78, 0x03, 0x00, 0x00, 0xbc, 0x02, 0x00, 0x00,
  0x30, 0x02, 0x00, 0x00, 0x50, 0x01, 0x00, 0x00, 0xa8, 0x00, 0x00, 0x00,
  0x10, 0x00, 0x00, 0x00, 0x04, 0x00, 0x00, 0x00, 0x6d, 0x61, 0x69, 0x6e,
  0x00, 0x00, 0x00, 0x00, 0x7a, 0xff, 0xff, 0xff, 0x00, 0x00, 0x00, 0x09,
  0x04, 0x00, 0x00, 0x00, 0x1c, 0x00, 0x00, 0x00, 0x10, 0x00, 0x00, 0x00,
  0x04, 0x00, 0x00, 0x00, 0xb2, 0xcf, 0xff, 0xff, 0x00, 0x00, 0x80, 0x3f,
  0x01, 0x00, 0x00, 0x00, 0x11, 0x00, 0x00, 0x00, 0x01, 0x00, 0x00, 0x00,
  0x10, 0x00, 0x00, 0x00, 0xa0, 0xfa, 0xff, 0xff, 0x19, 0x00, 0x00, 0x00,
  0x00, 0x00, 0x00, 0x19, 0x01, 0x00, 0x00, 0x00, 0x40, 0xcf, 0xff, 0xff,
  0x14, 0x00, 0x00, 0x00, 0x12, 0x00, 0x00, 0x00, 0x18, 0x00, 0x00, 0x00,
  0x30, 0x00, 0x00, 0x00, 0x20, 0x00, 0x00, 0x00, 0x02, 0x00, 0x00, 0x00,
  0x01, 0x00, 0x00, 0x00, 0x04, 0x00, 0x00, 0x00, 0x08, 0x00, 0x00, 0x00,
  0x49, 0x64, 0x65, 0x6e, 0x74, 0x69, 0x74, 0x79, 0x00, 0x00, 0x00, 0x00,
  0x02, 0x00, 0x00, 0x00, 0xff, 0xff, 0xff, 0xff, 0x04, 0x00, 0x00, 0x00,
  0x24, 0xd0, 0xff, 0xff, 0x00, 0x00, 0x0e, 0x00, 0x18, 0x00, 0x08, 0x00,
  0x0c, 0x00, 0x10, 0x00, 0x07, 0x00, 0x14, 0x00, 0x0e, 0x00, 0x00, 0x00,
  0x00, 0x00, 0x00, 0x08, 0x03, 0x00, 0x00, 0x00, 0x18, 0x00, 0x00, 0x00,
  0x0c, 0x00, 0x00, 0x00, 0x04, 0x00, 0x00, 0x00, 0x40, 0xcf, 0xff, 0xff,
  0x01, 0x00, 0x00, 0x00, 0x10, 0x00, 0x00, 0x00, 0x03, 0x00, 0x00, 0x00,
  0x0f, 0x00, 0x00, 0x00, 0x07, 0x00, 0x00, 0x00, 0x04, 0x00, 0x00, 0x00,
  0xc8, 0xcf, 0xff, 0xff, 0x14, 0x00, 0x00, 0x00, 0x11, 0x00, 0x00, 0x00,
  0x18, 0x00, 0x00, 0x00, 0x5c, 0x00, 0x00, 0x00, 0x4c, 0x00, 0x00, 0x00,
  0x02, 0x00, 0x00, 0x00, 0x01, 0x00, 0x00, 0x00, 0x04, 0x00, 0x00, 0x00,
  0x34, 0x00, 0x00, 0x00, 0x73, 0x65, 0x71, 0x75, 0x65, 0x6e, 0x74, 0x69,
  0x61, 0x6c, 0x2f, 0x64, 0x65, 0x6e, 0x73, 0x65, 0x5f, 0x31, 0x2f, 0x4d,
  0x61, 0x74, 0x4d, 0x75, 0x6c, 0x3b, 0x73, 0x65, 0x71, 0x75, 0x65, 0x6e,
  0x74, 0x69, 0x61, 0x6c, 0x2f, 0x64, 0x65, 0x6e, 0x73, 0x65, 0x5f, 0x31,
  0x2f, 0x42, 0x69, 0x61, 0x73, 0x41, 0x64, 0x64, 0x00, 0x00, 0x00, 0x00,
  0x02, 0x00, 0x00, 0x00, 0xff, 0xff, 0xff, 0xff, 0x04, 0x00, 0x00, 0x00,
  0xc8, 0xcf, 0xff, 0xff, 0xda, 0xfc, 0xff, 0xff, 0x00, 0x00, 0x00, 0x08,
  0x03, 0x00, 0x00, 0x00, 0x24, 0x00, 0x00, 0x00, 0x18, 0x00, 0x00, 0x00,
  0x0c, 0x00, 0x00, 0x00, 0x00, 0x00, 0x06, 0x00, 0x08, 0x00, 0x07, 0x00,
  0x06, 0x00, 0x00, 0x00, 0x00, 0x00, 0x00, 0x01, 0x01, 0x00, 0x00, 0x00,
  0x0f, 0x00, 0x00, 0x00, 0x03, 0x00, 0x00, 0x00, 0x0e, 0x00, 0x00, 0x00,
  0x06, 0x00, 0x00, 0x00, 0x03, 0x00, 0x00, 0x00, 0xe8, 0xfb, 0xff, 0xff,
  0x09, 0x00, 0x00, 0x00, 0x00, 0x00, 0x00, 0x09, 0x01, 0x00, 0x00, 0x00,
  0x88, 0xd0, 0xff, 0xff, 0x14, 0x00, 0x00, 0x00, 0x10, 0x00, 0x00, 0x00,
  0x18, 0x00, 0x00, 0x00, 0x6c, 0x00, 0x00, 0x00, 0x5c, 0x00, 0x00, 0x00,
  0x02, 0x00, 0x00, 0x00, 0x01, 0x00, 0x00, 0x00, 0x10, 0x00, 0x00, 0x00,
  0x46, 0x00, 0x00, 0x00, 0x73, 0x65, 0x71, 0x75, 0x65, 0x6e, 0x74, 0x69,
  0x61, 0x6c, 0x2f, 0x64, 0x65, 0x6e, 0x73, 0x65, 0x2f, 0x4d, 0x61, 0x74,
  0x4d, 0x75, 0x6c, 0x3b, 0x73, 0x65, 0x71, 0x75, 0x65, 0x6e, 0x74, 0x69,
  0x61, 0x6c, 0x2f, 0x64, 0x65, 0x6e, 0x73, 0x65, 0x2f, 0x52, 0x65, 0x6c,
  0x75, 0x3b, 0x73, 0x65, 0x71, 0x75, 0x65, 0x6e, 0x74, 0x69, 0x61, 0x6c,
  0x2f, 0x64, 0x65, 0x6e, 0x73, 0x65, 0x2f, 0x42, 0x69, 0x61, 0x73, 0x41,
  0x64, 0x64, 0x00, 0x00, 0x02, 0x00, 0x00, 0x00, 0xff, 0xff, 0xff, 0xff,
  0x10, 0x00, 0x00, 0x00, 0xa8, 0xd1, 0xff, 0xff, 0x00, 0x00, 0x0a, 0x00,
  0x10, 0x00, 0x04, 0x00, 0x08, 0x00, 0x0c, 0x00, 0x0a, 0x00, 0x00, 0x00,
  0x02, 0x00, 0x00, 0x00, 0x10, 0x00, 0x00, 0x00, 0x04, 0x00, 0x00, 0x00,
  0x01, 0x00, 0x00, 0x00, 0x0e, 0x00, 0x00, 0x00, 0x02, 0x00, 0x00, 0x00,
  0x0d, 0x00, 0x00, 0x00, 0x05, 0x00, 0x00, 0x00, 0xa8, 0xfc, 0xff, 0xff,
  0x16, 0x00, 0x00, 0x00, 0x00, 0x00, 0x00, 0x16, 0x01, 0x00, 0x00, 0x00,
  0x48, 0xd1, 0xff, 0xff, 0x14, 0x00, 0x00, 0x00, 0x0f, 0x00, 0x00, 0x00,
  0x18, 0x00, 0x00, 0x00, 0x40, 0x00, 0x00, 0x00, 0x30, 0x00, 0x00, 0x00,
  0x02, 0x00, 0x00, 0x00, 0x01, 0x00, 0x00, 0x00, 0x70, 0x00, 0x00, 0x00,
  0x1a, 0x00, 0x00, 0x00, 0x73, 0x65, 0x71, 0x75, 0x65, 0x6e, 0x74, 0x69,
  0x61, 0x6c, 0x2f, 0x66, 0x6c, 0x61, 0x74, 0x74, 0x65, 0x6e, 0x2f, 0x52,
  0x65, 0x73, 0x68, 0x61, 0x70, 0x65, 0x00, 0x00, 0x02, 0x00, 0x00, 0x00,
  0xff, 0xff, 0xff, 0xff, 0x70, 0x00, 0x00, 0x00, 0x2c, 0xd1, 0xff, 0xff,
  0x3e, 0xfe, 0xff, 0xff, 0x00, 0x00, 0x00, 0x05, 0x01, 0x00, 0x00, 0x00,
  0x38, 0x00, 0x00, 0x00, 0x2c, 0x00, 0x00, 0x00, 0x14, 0x00, 0x00, 0x00,
  0x00, 0x00, 0x0e, 0x00, 0x14, 0x00, 0x00, 0x00, 0x10, 0x00, 0x0c, 0x00,
  0x08, 0x00, 0x04, 0x00, 0x0e, 0x00, 0x00, 0x00, 0x03, 0x00, 0x00, 0x00,
  0x01, 0x00, 0x00, 0x00, 0x03, 0x00, 0x00, 0x00, 0x01, 0x00, 0x00, 0x00,
  0x01, 0x00, 0x00, 0x00, 0x0d, 0x00, 0x00, 0x00, 0x01, 0x00, 0x00, 0x00,
  0x0c, 0x00, 0x00, 0x00, 0xe8, 0xd1, 0xff, 0xff, 0x14, 0x00, 0x00, 0x00,
  0x0e, 0x00, 0x00, 0x00, 0x20, 0x00, 0x00, 0x00, 0x58, 0x00, 0x00, 0x00,
  0x40, 0x00, 0x00, 0x00, 0x04, 0x00, 0x00, 0x00, 0x01, 0x00, 0x00, 0x00,
  0x07, 0x00, 0x00, 0x00, 0x01, 0x00, 0x00, 0x00, 0x10, 0x00, 0x00, 0x00,
  0x22, 0x00, 0x00, 0x00, 0x73, 0x65, 0x71, 0x75, 0x65, 0x6e, 0x74, 0x69,
  0x61, 0x6c, 0x2f, 0x6d, 0x61, 0x78, 0x5f, 0x70, 0x6f, 0x6f, 0x6c, 0x69,
  0x6e, 0x67, 0x32, 0x64, 0x5f, 0x31, 0x2f, 0x4d, 0x61, 0x78, 0x50, 0x6f,
  0x6f, 0x6c, 0x00, 0x00, 0x04, 0x00, 0x00, 0x00, 0xff, 0xff, 0xff, 0xff,
  0x07, 0x00, 0x00, 0x00, 0x01, 0x00, 0x00, 0x00, 0x10, 0x00, 0x00, 0x00,
  0xe4, 0xd1, 0xff, 0xff, 0x1a, 0xfe, 0xff, 0xff, 0x00, 0x00, 0x00, 0x01,
  0x24, 0x00, 0x00, 0x00, 0x18, 0x00, 0x00, 0x00, 0x04, 0x00, 0x00, 0x00,
  0x0c, 0xfe, 0xff, 0xff, 0x01, 0x00, 0x00, 0x00, 0x01, 0x00, 0x00, 0x00,
  0x00, 0x00, 0x00, 0x01, 0x01, 0x00, 0x00, 0x00, 0x0c, 0x00, 0x00, 0x00,
  0x03, 0x00, 0x00, 0x00, 0x0b, 0x00, 0x00, 0x00, 0x09, 0x00, 0x00, 0x00,
  0x02, 0x00, 0x00, 0x00, 0x90, 0xd2, 0xff, 0xff, 0x14, 0x00, 0x00, 0x00,
  0x0d, 0x00, 0x00, 0x00, 0x20, 0x00, 0x00, 0x00, 0xb8, 0x00, 0x00, 0x00,
  0xa0, 0x00, 0x00, 0x00, 0x04, 0x00, 0x00, 0x00, 0x01, 0x00, 0x00, 0x00,
  0x15, 0x00, 0x00, 0x00, 0x01, 0x00, 0x00, 0x00, 0x10, 0x00, 0x00, 0x00,
  0x83, 0x00, 0x00, 0x00, 0x73, 0x65, 0x71, 0x75, 0x65, 0x6e, 0x74, 0x69,
  0x61, 0x6c, 0x2f, 0x63, 0x6f, 0x6e, 0x76, 0x32, 0x64, 0x5f, 0x31, 0x2f,
  0x52, 0x65, 0x6c, 0x75, 0x3b, 0x73, 0x65, 0x71, 0x75, 0x65, 0x6e, 0x74,
  0x69, 0x61, 0x6c, 0x2f, 0x63, 0x6f, 0x6e, 0x76, 0x32, 0x64, 0x5f, 0x31,
  0x2f, 0x42, 0x69, 0x61, 0x73, 0x41, 0x64, 0x64, 0x3b, 0x73, 0x65, 0x71,
  0x75, 0x65, 0x6e, 0x74, 0x69, 0x61, 0x6c, 0x2f, 0x63, 0x6f, 0x6e, 0x76,
  0x32, 0x64, 0x5f, 0x31, 0x2f, 0x43, 0x6f, 0x6e, 0x76, 0x32, 0x44, 0x3b,
  0x73, 0x65, 0x71, 0x75, 0x65, 0x6e, 0x74, 0x69, 0x61, 0x6c, 0x2f, 0x63,
  0x6f, 0x6e, 0x76, 0x32, 0x64, 0x5f, 0x31, 0x2f, 0x42, 0x69, 0x61, 0x73,
  0x41, 0x64, 0x64, 0x2f, 0x52, 0x65, 0x61, 0x64, 0x56, 0x61, 0x72, 0x69,
  0x61, 0x62, 0x6c, 0x65, 0x4f, 0x70, 0x2f, 0x72, 0x65, 0x73, 0x6f, 0x75,
  0x72, 0x63, 0x65, 0x00, 0x04, 0x00, 0x00, 0x00, 0xff, 0xff, 0xff, 0xff,
  0x15, 0x00, 0x00, 0x00, 0x01, 0x00, 0x00, 0x00, 0x10, 0x00, 0x00, 0x00,
  0xfc, 0xd3, 0xff, 0xff, 0x00, 0x00, 0x0e, 0x00, 0x1a, 0x00, 0x08, 0x00,
  0x0c, 0x00, 0x10, 0x00, 0x07, 0x00, 0x14, 0x00, 0x0e, 0x00, 0x00, 0x00,
  0x00, 0x00, 0x00, 0x05, 0x01, 0x00, 0x00, 0x00, 0x3c, 0x00, 0x00, 0x00,
  0x30, 0x00, 0x00, 0x00, 0x14, 0x00, 0x00, 0x00, 0x00, 0x00, 0x0e, 0x00,
  0x18, 0x00, 0x17, 0x00, 0x10, 0x00, 0x0c, 0x00, 0x08, 0x00, 0x04, 0x00,
  0x0e, 0x00, 0x00, 0x00, 0x03, 0x00, 0x00, 0x00, 0x03, 0x00, 0x00, 0x00,
  0x03, 0x00, 0x00, 0x00, 0x03, 0x00, 0x00, 0x00, 0x00, 0x00, 0x00, 0x01,
  0x01, 0x00, 0x00, 0x00, 0x0b, 0x00, 0x00, 0x00, 0x01, 0x00, 0x00, 0x00,
  0x0a, 0x00, 0x00, 0x00, 0x2c, 0xff, 0xff, 0xff, 0x11, 0x00, 0x00, 0x00,
  0x00, 0x00, 0x00, 0x11, 0x01, 0x00, 0x00, 0x00, 0xcc, 0xd3, 0xff, 0xff,
  0x14, 0x00, 0x00, 0x00, 0x0c, 0x00, 0x00, 0x00, 0x20, 0x00, 0x00, 0x00,
  0x58, 0x00, 0x00, 0x00, 0x40, 0x00, 0x00, 0x00, 0x04, 0x00, 0x00, 0x00,
  0x01, 0x00, 0x00, 0x00, 0x15, 0x00, 0x00, 0x00, 0x01, 0x00, 0x00, 0x00,
  0x08, 0x00, 0x00, 0x00, 0x20, 0x00, 0x00, 0x00, 0x73, 0x65, 0x71, 0x75,
  0x65, 0x6e, 0x74, 0x69, 0x61, 0x6c, 0x2f, 0x6d, 0x61, 0x78, 0x5f, 0x70,
  0x6f, 0x6f, 0x6c, 0x69, 0x6e, 0x67, 0x32, 0x64, 0x2f, 0x4d, 0x61, 0x78,
  0x50, 0x6f, 0x6f, 0x6c, 0x00, 0x00, 0x00, 0x00, 0x04, 0x00, 0x00, 0x00,
  0xff, 0xff, 0xff, 0xff, 0x15, 0x00, 0x00, 0x00, 0x01, 0x00, 0x00, 0x00,
  0x08, 0x00, 0x00, 0x00, 0xd8, 0xd4, 0xff, 0xff, 0x00, 0x00, 0x0e, 0x00,
  0x14, 0x00, 0x00, 0x00, 0x08, 0x00, 0x0c, 0x00, 0x07, 0x00, 0x10, 0x00,
  0x0e, 0x00, 0x00, 0x00, 0x00, 0x00, 0x00, 0x01, 0x30, 0x00, 0x00, 0x00,
  0x24, 0x00, 0x00, 0x00, 0x10, 0x00, 0x00, 0x00, 0x0c, 0x00, 0x10, 0x00,
  0x00, 0x00, 0x04, 0x00, 0x08, 0x00, 0x0f, 0x00, 0x0c, 0x00, 0x00, 0x00,
  0x01, 0x00, 0x00, 0x00, 0x01, 0x00, 0x00, 0x00, 0x00, 0x00, 0x00, 0x01,
  0x01, 0x00, 0x00, 0x00, 0x0a, 0x00, 0x00, 0x00, 0x03, 0x00, 0x00, 0x00,
  0x00, 0x00, 0x00, 0x00, 0x08, 0x00, 0x00, 0x00, 0x01, 0x00, 0x00, 0x00,
  0x0c, 0x00, 0x10, 0x00, 0x0b, 0x00, 0x00, 0x00, 0x0c, 0x00, 0x04, 0x00,
  0x0c, 0x00, 0x00, 0x00, 0x03, 0x00, 0x00, 0x00, 0x00, 0x00, 0x00, 0x03,
  0x01, 0x00, 0x00, 0x00, 0xac, 0xd4, 0xff, 0xff, 0x14, 0x00, 0x00, 0x00,
  0x0b, 0x00, 0x00, 0x00, 0x20, 0x00, 0x00, 0x00, 0xb0, 0x00, 0x00, 0x00,
  0x98, 0x00, 0x00, 0x00, 0x04, 0x00, 0x00, 0x00, 0x01, 0x00, 0x00, 0x00,
  0x40, 0x00, 0x00, 0x00, 0x03, 0x00, 0x00, 0x00, 0x08, 0x00, 0x00, 0x00,
  0x7b, 0x00, 0x00, 0x00, 0x73, 0x65, 0x71, 0x75, 0x65, 0x6e, 0x74, 0x69,
  0x61, 0x6c, 0x2f, 0x63, 0x6f, 0x6e, 0x76, 0x32, 0x64, 0x2f, 0x52, 0x65,
  0x6c, 0x75, 0x3b, 0x73, 0x65, 0x71, 0x75, 0x65, 0x6e, 0x74, 0x69, 0x61,
  0x6c, 0x2f, 0x63, 0x6f, 0x6e, 0x76, 0x32, 0x64, 0x2f, 0x42, 0x69, 0x61,
  0x73, 0x41, 0x64, 0x64, 0x3b, 0x73, 0x65, 0x71, 0x75, 0x65, 0x6e, 0x74,
  0x69, 0x61, 0x6c, 0x2f, 0x63, 0x6f, 0x6e, 0x76, 0x32, 0x64, 0x2f, 0x43,
  0x6f, 0x6e, 0x76, 0x32, 0x44, 0x3b, 0x73, 0x65, 0x71, 0x75, 0x65, 0x6e,
  0x74, 0x69, 0x61, 0x6c, 0x2f, 0x63, 0x6f, 0x6e, 0x76, 0x32, 0x64, 0x2f,
  0x42, 0x69, 0x61, 0x73, 0x41, 0x64, 0x64, 0x2f, 0x52, 0x65, 0x61, 0x64,
  0x56, 0x61, 0x72, 0x69, 0x61, 0x62, 0x6c, 0x65, 0x4f, 0x70, 0x2f, 0x72,
  0x65, 0x73, 0x6f, 0x75, 0x72, 0x63, 0x65, 0x00, 0x04, 0x00, 0x00, 0x00,
  0xff, 0xff, 0xff, 0xff, 0x40, 0x00, 0x00, 0x00, 0x03, 0x00, 0x00, 0x00,
  0x08, 0x00, 0x00, 0x00, 0x00, 0xd5, 0xff, 0xff, 0x0a, 0xd6, 0xff, 0xff,
  0x04, 0x00, 0x00, 0x00, 0x00, 0x08, 0x00, 0x00, 0xd6, 0xae, 0x25, 0xbe,
  0xce, 0x1c, 0xc0, 0x3d, 0xc1, 0x76, 0x94, 0x3c, 0x15, 0x29, 0x3e, 0x3e,
  0x17, 0xe1, 0xb5, 0xbd, 0xf1, 0xc4, 0xd7, 0x3d, 0x15, 0x10, 0x3b, 0x3e,
  0x6a, 0xce, 0xe7, 0x3e, 0x0b, 0x16, 0x8d, 0xbe, 0x28, 0xd2, 0x76, 0xbd,
  0x09, 0xdd, 0x4d, 0xbe, 0x7d, 0x0a, 0xa9, 0xbe, 0x74, 0x0b, 0x80, 0xbe,
  0x3e, 0x99, 0x17, 0xbe, 0x9d, 0xb8, 0x04, 0xbe, 0x7b, 0x6c, 0x94, 0xbd,
  0xc5, 0xbe, 0x1c, 0xbe, 0xb3, 0xe6, 0x17, 0xbd, 0x36, 0x9f, 0xda, 0xbd,
  0x90, 0xac, 0x93, 0xbe, 0xb7, 0x28, 0x22, 0x3c, 0xe1, 0x0d, 0x4d, 0xbe,
  0x35, 0xd6, 0xd8, 0xbd, 0x68, 0x7b, 0x5b, 0x3d, 0x8b, 0xd2, 0x33, 0xbd,
  0x70, 0xa8, 0xc7, 0x3c, 0xd7, 0x48, 0x3d, 0x3c, 0x58, 0xbd, 0xa9, 0xbd,
  0x9a, 0x55, 0x29, 0x3e, 0x10, 0xea, 0xfe, 0xbd, 0x32, 0x43, 0xa4, 0xbd,
  0x37, 0x7e, 0xa6, 0x3c, 0x76, 0xd4, 0x27, 0xbe, 0x2e, 0xdb, 0xf3, 0xbe,
  0x32, 0x72, 0xf8, 0xbe, 0xe7, 0x80, 0x89, 0xbd, 0x2d, 0xf9, 0x51, 0x3c,
  0xdf, 0x94, 0x84, 0xbe, 0xc0, 0x01, 0x7c, 0xbe, 0xb3, 0x03, 0x0d, 0x3f,
  0x44, 0xa5, 0x10, 0xbe, 0x85, 0xb6, 0x84, 0x3e, 0x9b, 0x82, 0x8b, 0xbb,
  0xea, 0xac, 0x24, 0xbe, 0x8c, 0xfd, 0x4e, 0x3e, 0x6e, 0x98, 0x82, 0xbf,
  0x46, 0x2c, 0x0c, 0xbf, 0xd4, 0x46, 0x51, 0x3e, 0x91, 0xc6, 0x2b, 0xbe,
  0x14, 0x57, 0x6d, 0x3d, 0x18, 0xca, 0xa1, 0x3e, 0xf6, 0xa6, 0x7d, 0xbd,
  0x0f, 0x7f, 0x0a, 0xbc, 0x1d, 0xfe, 0x2d, 0xbe, 0xed, 0xd0, 0xe4, 0xbd,
  0x54, 0xd8, 0xca, 0xbe, 0x5f, 0xd2, 0x1f, 0xbe, 0x26, 0x38, 0x93, 0x3c,
  0x3b, 0xd4, 0x93, 0xbc, 0x13, 0x1f, 0xdd, 0xbc, 0x5d, 0xdf, 0x05, 0xbd,
  0x57, 0x6d, 0x26, 0x3e, 0xd4, 0x08, 0xcc, 0x3c, 0xf3, 0x3a, 0x42, 0x3b,
  0x96, 0x48, 0x0f, 0xbe, 0xba, 0x6c, 0x2c, 0xbe, 0xa7, 0x08, 0xc4, 0xbe,
  0x3e, 0x9e, 0x8c, 0xbd, 0xe9, 0x1d, 0x67, 0xbd, 0x74, 0xac, 0xf9, 0xbd,
  0x85, 0x7f, 0x96, 0xbd, 0x73, 0xa7, 0xd5, 0xbd, 0x63, 0xf7, 0xf1, 0xbd,
  0x94, 0x8c, 0x69, 0xbd, 0x2a, 0x37, 0xf0, 0xbe, 0x4f, 0x26, 0xc4, 0xbd,
  0x27, 0x06, 0xa4, 0x3e, 0x40, 0x00, 0x56, 0xbe, 0xb0, 0x67, 0x40, 0xbe,
  0xe2, 0xf5, 0xab, 0x3e, 0x7d, 0xc4, 0xf3, 0xbd, 0xb2, 0x90, 0x47, 0x3e,
  0xe4, 0x10, 0x96, 0x3e, 0xcf, 0xec, 0x0e, 0xbe, 0x3e, 0x96, 0x9c, 0xbd,
  0x89, 0x95, 0xc0, 0xbe, 0x21, 0x6f, 0x31, 0xbe, 0x29, 0xa2, 0xb7, 0x3e,
  0x4b, 0x1f, 0xfb, 0xbd, 0x0a, 0x6a, 0xe6, 0xbd, 0x5f, 0x17, 0xc4, 0x3e,
  0x61, 0x2d, 0x0a, 0xbe, 0x83, 0x28, 0x1f, 0xbc, 0x73, 0xaa, 0xa7, 0x3d,
  0x4a, 0x14, 0x35, 0xbd, 0x77, 0x27, 0x1b, 0xbd, 0xf8, 0x60, 0x34, 0xbe,
  0x3e, 0x83, 0xbd, 0xbc, 0xf5, 0xfb, 0x93, 0xbd, 0x60, 0x18, 0x64, 0xbe,
  0x0d, 0xf9, 0xe7, 0xbb, 0xa4, 0xc3, 0x25, 0xbe, 0x30, 0x93, 0x0d, 0xbd,
  0xf6, 0xad, 0xfb, 0xbc, 0x17, 0x0c, 0x01, 0xbe, 0xeb, 0xa3, 0xa1, 0xbe,
  0xbb, 0x4f, 0x87, 0xbd, 0x86, 0xed, 0x2e, 0xbe, 0x96, 0x21, 0xab, 0xbd,
  0xee, 0x6e, 0x72, 0xbe, 0x13, 0xc3, 0x1a, 0xbd, 0x7b, 0xad, 0xe0, 0x3e,
  0x9c, 0xef, 0x79, 0xbd, 0x4c, 0xdc, 0xa3, 0xbe, 0xdc, 0x5e, 0x89, 0xbe,
  0xd8, 0x9c, 0xd0, 0xbd, 0xf6, 0x4c, 0x85, 0xbd, 0x4c, 0x4b, 0x41, 0xbe,
  0x22, 0xc0, 0xe3, 0xbd, 0x2f, 0xde, 0xd4, 0x3d, 0xc6, 0xa1, 0x8e, 0xbb,
  0x7b, 0xa5, 0x0b, 0x3d, 0x6a, 0x57, 0x58, 0x3e, 0x67, 0x99, 0x0d, 0xbe,
  0xf8, 0x9e, 0xa8, 0x3e, 0xb9, 0x39, 0x3b, 0xbe, 0x5e, 0x2c, 0x18, 0xbe,
  0x03, 0x20, 0x9a, 0x3e, 0xc2, 0x3c, 0x98, 0xbe, 0x51, 0x9c, 0xea, 0x3e,
  0xf2, 0x4d, 0x7f, 0xbd, 0x22, 0xb9, 0x93, 0xbd, 0x1c, 0x09, 0x2b, 0xbe,
  0xac, 0xc3, 0x2a, 0xbe, 0xa4, 0xae, 0xfa, 0xbd, 0x81, 0xb9, 0x45, 0xbe,
  0xba, 0x8a, 0xa0, 0xbe, 0xa1, 0xd9, 0x09, 0x3d, 0x79, 0xd5, 0x8d, 0xbd,
  0x16, 0x01, 0xa5, 0xbd, 0x80, 0xa1, 0x0f, 0xbe, 0xe0, 0x83, 0xee, 0xbc,
  0xdc, 0x55, 0xa9, 0xbd, 0x24, 0xe8, 0xfb, 0xbd, 0xb7, 0x8b, 0x2d, 0xbe,
  0x81, 0x43, 0x20, 0xbe, 0xe3, 0x27, 0x12, 0xbc, 0x2f, 0x11, 0xc9, 0x3d,
  0x3d, 0x31, 0xc0, 0x3c, 0xd7, 0xa8, 0xd0, 0xba, 0x68, 0xed, 0x84, 0x3d,
  0xa7, 0x57, 0x32, 0xbd, 0x62, 0x31, 0xd4, 0xbd, 0x30, 0xce, 0x67, 0xbe,
  0xda, 0xf6, 0x1f, 0xbd, 0x42, 0x1c, 0x8f, 0xbd, 0x8b, 0x38, 0x31, 0x3b,
  0x9b, 0x9f, 0xb5, 0x3d, 0x7e, 0x06, 0x3a, 0xbd, 0x73, 0xbd, 0x86, 0x3c,
  0x53, 0x9e, 0x8d, 0xbd, 0xff, 0x39, 0x6a, 0x3e, 0xaf, 0xe1, 0x32, 0xbf,
  0xe7, 0xb5, 0x4e, 0xbe, 0xe9, 0xee, 0xa0, 0x3d, 0x94, 0x11, 0x69, 0xbf,
  0x5d, 0xd9, 0x48, 0xbe, 0xdf, 0x78, 0x96, 0xbd, 0x94, 0xa5, 0xba, 0xbd,
  0x6b, 0x47, 0x52, 0xbc, 0x99, 0xc7, 0x98, 0xbe, 0x93, 0xa6, 0xac, 0xbd,
  0x87, 0x34, 0xcd, 0x3c, 0xaa, 0xae, 0x70, 0xbf, 0xca, 0x49, 0x24, 0xbd,
  0x8c, 0x0f, 0x96, 0xbe, 0x4b, 0x5e, 0x3f, 0x3e, 0x0a, 0x36, 0x88, 0xbe,
  0x25, 0x4e, 0x83, 0x3d, 0xab, 0xb4, 0x01, 0x3d, 0x44, 0xc1, 0x89, 0x3e,
  0x55, 0x70, 0x1a, 0xbf, 0x5d, 0x10, 0xf1, 0xbe, 0x79, 0x94, 0x9e, 0xbd,
  0xc8, 0x74, 0x07, 0xbe, 0x52, 0x17, 0x59, 0x3d, 0x21, 0x7e, 0x1a, 0xbf,
  0xa9, 0xe1, 0x06, 0xbe, 0x98, 0xf0, 0x09, 0xbf, 0x2a, 0xaa, 0xb6, 0xbe,
  0xb3, 0xe1, 0xc4, 0xbe, 0x67, 0x84, 0xa2, 0xbc, 0xbc, 0x7e, 0x9e, 0x3d,
  0x12, 0x64, 0xcf, 0xbd, 0xc0, 0x18, 0x14, 0xbe, 0xd6, 0x80, 0xbf, 0xbc,
  0x7e, 0xdb, 0xca, 0xbd, 0x3d, 0xbe, 0xc5, 0xbd, 0x6d, 0xb1, 0xa1, 0xbd,
  0x18, 0x9d, 0xf0, 0x3e, 0x10, 0xaa, 0xaf, 0xbc, 0xf2, 0xcd, 0xd3, 0x3d,
  0xec, 0xe2, 0xf2, 0xbe, 0x75, 0x42, 0xe8, 0xbd, 0x22, 0xc5, 0xf0, 0x3d,
  0x8b, 0xfa, 0x99, 0xbe, 0x52, 0x1b, 0xa4, 0xbe, 0x57, 0x21, 0x24, 0x3e,
  0xc8, 0x13, 0xa7, 0xbc, 0x78, 0xe2, 0xe3, 0xbd, 0xe3, 0xad, 0x1c, 0x3d,
  0xa5, 0x17, 0xa0, 0xbd, 0x0e, 0x2f, 0xc2, 0xbd, 0x34, 0x83, 0xc6, 0xbe,
  0x71, 0xc7, 0xbc, 0xbe, 0x65, 0x1d, 0x45, 0x3c, 0xe2, 0xc1, 0x31, 0xbd,
  0x2a, 0xd9, 0x67, 0x3e, 0xc2, 0x54, 0x05, 0x3e, 0x8a, 0xe5, 0xc7, 0xbd,
  0x41, 0xdb, 0x41, 0xbe, 0x9a, 0x56, 0x86, 0x3e, 0x89, 0x29, 0x96, 0x3c,
  0xb2, 0xb5, 0x30, 0xbe, 0x8a, 0x1f, 0x86, 0x3c, 0xe0, 0xf9, 0x96, 0x3e,
  0x07, 0x64, 0xea, 0x3d, 0xeb, 0x6c, 0x3f, 0xbe, 0x73, 0xee, 0xc1, 0xbe,
  0x81, 0x9e, 0x6b, 0xbe, 0x51, 0x32, 0x4c, 0x3d, 0x40, 0x5d, 0xa3, 0xbe,
  0x82, 0x33, 0x00, 0xbb, 0x99, 0x18, 0x18, 0xbd, 0x0a, 0xf6, 0x92, 0x3d,
  0x62, 0xf2, 0x5d, 0xbe, 0x0e, 0x18, 0xe3, 0xbe, 0x5c, 0x1f, 0x4d, 0xbd,
  0xa1, 0xcc, 0x26, 0x3b, 0x5f, 0x2b, 0xa6, 0xbd, 0xf9, 0x4f, 0xab, 0x3c,
  0x15, 0xed, 0x1d, 0xbd, 0xa2, 0xf9, 0xa7, 0x3d, 0x12, 0x96, 0x5b, 0xbe,
  0xd4, 0xc3, 0xc9, 0xbe, 0x65, 0x48, 0x15, 0x3e, 0xdc, 0x52, 0xa0, 0x3e,
  0x85, 0xca, 0x92, 0x3e, 0x42, 0x25, 0xb2, 0x3b, 0x7e, 0x9a, 0x93, 0xbd,
  0xe4, 0x0f, 0x93, 0x3e, 0x3b, 0x5e, 0x18, 0xbe, 0xc9, 0x22, 0xa0, 0xbe,
  0xf9, 0x11, 0xa6, 0x3d, 0x9d, 0x06, 0x5c, 0xbc, 0xc1, 0x96, 0x75, 0x3e,
  0x59, 0x14, 0xd7, 0xbb, 0x48, 0x16, 0x3a, 0x3e, 0xfa, 0xdd, 0x13, 0x3e,
  0x45, 0x69, 0x26, 0xbd, 0x8c, 0x75, 0x4c, 0xbe, 0xca, 0x76, 0x79, 0xbd,
  0xac, 0xe7, 0xc5, 0xbd, 0xea, 0x0f, 0x5b, 0xbf, 0x12, 0xeb, 0xd2, 0xbc,
  0xd4, 0xe1, 0xdf, 0xbc, 0x8a, 0xbc, 0x53, 0xbd, 0xc0, 0xc8, 0x8c, 0xbd,
  0xe8, 0x59, 0x8b, 0xbd, 0x6b, 0x61, 0x00, 0xbd, 0xbe, 0xe1, 0xb9, 0xbd,
  0x38, 0x36, 0x34, 0xbc, 0x6f, 0x77, 0xad, 0xbc, 0x2f, 0x74, 0x08, 0x3e,
  0x45, 0x2a, 0x4c, 0x3e, 0x56, 0xa5, 0x1c, 0xbd, 0xae, 0x37, 0x07, 0xbe,
  0x8a, 0x5e, 0x42, 0x3c, 0x63, 0x31, 0x13, 0xbd, 0x0a, 0xda, 0x75, 0x3e,
  0x85, 0x4a, 0xd2, 0xbc, 0x9a, 0x63, 0xe7, 0xbd, 0xeb, 0x36, 0x91, 0xbc,
  0x53, 0x52, 0x95, 0xbd, 0x99, 0xd4, 0x22, 0xbd, 0x6d, 0xa2, 0x79, 0x3b,
  0x8c, 0x49, 0xc5, 0x3e, 0xae, 0x29, 0x45, 0x3e, 0x55, 0xe0, 0x51, 0xbe,
  0x6f, 0xcb, 0x85, 0x3e, 0x97, 0x78, 0x3d, 0x3d, 0xe1, 0x5a, 0xe6, 0x3e,
  0xa4, 0xbc, 0xf0, 0xbd, 0x11, 0x2b, 0x6a, 0x3e, 0x7e, 0xd9, 0x47, 0x3d,
  0x79, 0x66, 0x03, 0x3f, 0xa9, 0x9b, 0xaa, 0xbe, 0x3d, 0x82, 0x0f, 0xbe,
  0x06, 0x29, 0x01, 0x3d, 0x91, 0x11, 0x05, 0xbe, 0x80, 0x2f, 0x4b, 0xbe,
  0xc2, 0x58, 0x10, 0xbd, 0x28, 0x5c, 0x1a, 0xbd, 0x4f, 0x1a, 0xb1, 0xbd,
  0x28, 0xa4, 0xa0, 0xbe, 0x51, 0xaf, 0xd7, 0x3c, 0xe6, 0xf1, 0x11, 0xbe,
  0x48, 0x45, 0x6b, 0xbe, 0x7c, 0x30, 0x2e, 0xbe, 0xc2, 0xf5, 0x48, 0xbe,
  0xd6, 0x41, 0x87, 0xbd, 0x7a, 0x86, 0x7b, 0x3e, 0x63, 0xd4, 0x8d, 0xbe,
  0x6e, 0x0b, 0x47, 0xbd, 0x75, 0x2c, 0xef, 0xbd, 0x3d, 0x01, 0x5f, 0xbe,
  0x7e, 0x52, 0x27, 0x3e, 0xb1, 0xfe, 0x2a, 0xbe, 0xee, 0x39, 0xce, 0xbd,
  0x76, 0xaa, 0x44, 0x3d, 0xf9, 0xfc, 0x0b, 0xbe, 0x4c, 0x3c, 0xd2, 0x3e,
  0x6a, 0xe5, 0xb7, 0xbe, 0xed, 0x89, 0x1d, 0xbe, 0xe9, 0xd4, 0xb2, 0x3e,
  0x89, 0xed, 0x35, 0xbf, 0x30, 0x59, 0xe7, 0xbe, 0x13, 0x9e, 0x30, 0x3f,
  0xed, 0xa1, 0x96, 0xbe, 0xb1, 0x2e, 0x63, 0xbd, 0xaa, 0xe6, 0x39, 0x3e,
  0xde, 0x34, 0x36, 0xbe, 0x2f, 0x29, 0x8e, 0xbe, 0xd4, 0xce, 0x91, 0xbe,
  0x6d, 0x3a, 0x5f, 0xbe, 0xf7, 0x27, 0x97, 0xbe, 0x05, 0x10, 0x03, 0xbf,
  0x22, 0xd7, 0xe4, 0x3d, 0x19, 0xf8, 0x48, 0x3e, 0x83, 0x5a, 0xdc, 0x3b,
  0x79, 0x88, 0x11, 0xbe, 0x72, 0x94, 0x09, 0x3e, 0xeb, 0xd5, 0x05, 0x3c,
  0xfc, 0x76, 0x74, 0x3b, 0x0d, 0xf9, 0xa7, 0xbe, 0x59, 0x12, 0xf0, 0xbe,
  0xd9, 0x48, 0x02, 0xbe, 0xbd, 0xed, 0x62, 0xbc, 0x3c, 0x57, 0x96, 0xbc,
  0xba, 0x27, 0x1c, 0x3d, 0x2a, 0x03, 0x1f, 0x3d, 0xa1, 0xf4, 0x89, 0x3d,
  0x5c, 0xc1, 0xb8, 0xbc, 0x29, 0x8b, 0xd0, 0xbc, 0x2e, 0xc4, 0x54, 0x3e,
  0xa2, 0x93, 0x39, 0xbc, 0xf3, 0xd6, 0x99, 0xbd, 0xbb, 0x65, 0x29, 0x3c,
  0xff, 0x0f, 0x67, 0x3e, 0xb5, 0x6f, 0xb8, 0xbe, 0xbc, 0xcb, 0x69, 0xbd,
  0x4c, 0x4b, 0x86, 0x3d, 0x10, 0x92, 0xb2, 0x3a, 0xed, 0x14, 0x63, 0xbe,
  0xba, 0x77, 0xc6, 0x3d, 0x9d, 0x31, 0x9b, 0xbd, 0xfe, 0xa6, 0x01, 0x3e,
  0x18, 0x1f, 0x15, 0xbf, 0xae, 0xc3, 0x83, 0x3d, 0xaa, 0x64, 0x9f, 0xbb,
  0x1f, 0x13, 0x24, 0x3d, 0xdc, 0x1d, 0xc9, 0xbc, 0xff, 0x01, 0x03, 0x3e,
  0x22, 0x4b, 0x03, 0xbe, 0x20, 0xf0, 0x7f, 0xbc, 0x42, 0xfc, 0x37, 0xbf,
  0x64, 0xcb, 0xdd, 0x3d, 0x32, 0x76, 0x3b, 0xbd, 0xe4, 0x29, 0x53, 0xbe,
  0x6a, 0xec, 0x72, 0x3e, 0x24, 0x48, 0x04, 0xbe, 0xa7, 0x1d, 0x2d, 0xbe,
  0x81, 0x12, 0x38, 0xbe, 0x41, 0xf9, 0x10, 0xbf, 0x10, 0xdc, 0x0a, 0xbe,
  0x43, 0xc0, 0x7e, 0xbe, 0x95, 0xd8, 0xa8, 0xbe, 0x0e, 0x79, 0xe3, 0xbd,
  0x1b, 0xef, 0xfe, 0xbd, 0x28, 0x5b, 0xc9, 0xbd, 0xe4, 0xc2, 0x02, 0xbe,
  0x72, 0xf0, 0x38, 0x3e, 0x31, 0x10, 0xa5, 0xbd, 0x1d, 0x24, 0xe6, 0x3d,
  0xb4, 0x2d, 0x89, 0x3d, 0x63, 0x74, 0x3b, 0xbd, 0xb2, 0x00, 0x31, 0xbd,
  0x1c, 0x82, 0x92, 0xbd, 0xd5, 0xf2, 0x24, 0xbd, 0x13, 0xca, 0x96, 0x3d,
  0x80, 0xba, 0x23, 0xbd, 0xa1, 0x9f, 0xf4, 0x3d, 0x80, 0x5b, 0x66, 0xbe,
  0x56, 0x7b, 0x5a, 0xbd, 0x41, 0x5c, 0x0e, 0x3d, 0x37, 0x3e, 0xab, 0xbd,
  0x01, 0xbb, 0x23, 0xbd, 0xcf, 0xbb, 0x61, 0x3e, 0x4c, 0x67, 0x1b, 0xbd,
  0x99, 0x7f, 0xe8, 0x3d, 0x06, 0x7f, 0x27, 0x3f, 0x3d, 0x18, 0x55, 0x3e,
  0xab, 0xc1, 0x7b, 0x3c, 0xa4, 0x58, 0xbf, 0x3d, 0xb6, 0x03, 0x7f, 0x3d,
  0x03, 0x18, 0x7b, 0x3d, 0x0e, 0xc1, 0xfc, 0x3c, 0x0b, 0xba, 0x1a, 0x3f,
  0x0f, 0x92, 0x6b, 0x3c, 0xfa, 0xb2, 0xf8, 0x3b, 0xf1, 0xa9, 0x19, 0xbe,
  0x7b, 0xfe, 0xfd, 0xbe, 0x43, 0x20, 0x96, 0xbe, 0x91, 0xf9, 0xad, 0xbd,
  0x78, 0x59, 0x90, 0x3a, 0x00, 0xa6, 0x09, 0x3e, 0x35, 0xd6, 0x15, 0xbd,
  0x2d, 0x4f, 0x15, 0xbd, 0xbc, 0x38, 0x0d, 0xbc, 0xe8, 0x78, 0x8d, 0xbe,
  0x59, 0x04, 0x46, 0xbe, 0xa1, 0x5c, 0x63, 0xbe, 0xeb, 0xf3, 0x84, 0xbc,
  0xbb, 0x15, 0xae, 0xbd, 0xd9, 0xe6, 0x1f, 0xbc, 0x04, 0xab, 0x02, 0xbd,
  0x66, 0x09, 0xb9, 0xbd, 0xea, 0x01, 0x13, 0x3d, 0xd8, 0x5a, 0x84, 0xbb,
  0xc5, 0x1f, 0x8c, 0xbd, 0xde, 0xdc, 0xbd, 0xbb, 0x4b, 0x5b, 0x3a, 0xbe,
  0xd5, 0xc5, 0xba, 0x3e, 0xc2, 0x43, 0x98, 0xbd, 0x24, 0x3e, 0xe7, 0xbd,
  0x05, 0x66, 0xb8, 0x3d, 0x32, 0x7a, 0x4a, 0x3e, 0xb6, 0xab, 0x3c, 0x3b,
  0x9c, 0x81, 0x52, 0xbe, 0x53, 0x56, 0x45, 0x3f, 0x2b, 0x03, 0x3e, 0xbe,
  0x7c, 0x9d, 0x2b, 0xbe, 0x7c, 0x62, 0xd5, 0xbc, 0x98, 0x61, 0x4a, 0xbe,
  0x5f, 0xaf, 0x69, 0xbe, 0x38, 0xec, 0x43, 0xbe, 0x01, 0xcc, 0x5b, 0xbe,
  0x38, 0x6e, 0x32, 0xbd, 0x68, 0x27, 0xf3, 0xb9, 0x73, 0x4e, 0xee, 0xbd,
  0x13, 0x00, 0x0e, 0xbe, 0x61, 0x8e, 0x10, 0xbe, 0x88, 0xb9, 0x0d, 0xbe,
  0xd4, 0xd2, 0x22, 0xbe, 0x02, 0x42, 0x8f, 0xbd, 0x90, 0x63, 0x72, 0xbe,
  0x21, 0x99, 0xf5, 0xbd, 0xd2, 0x5a, 0x50, 0x3d, 0xab, 0x17, 0xf5, 0x3d,
  0x42, 0xc7, 0x02, 0xbd, 0x9d, 0x2d, 0x33, 0x3b, 0xfe, 0x4e, 0x3a, 0x3e,
  0x71, 0x83, 0x4b, 0xbe, 0x43, 0x1d, 0xed, 0xbe, 0x58, 0x20, 0x4a, 0x3e,
  0xeb, 0xa9, 0xa0, 0x3d, 0xdc, 0x0f, 0x03, 0x3d, 0x47, 0x01, 0xd9, 0x3d,
  0x90, 0x6b, 0x68, 0xbd, 0xe8, 0x2c, 0x4b, 0x3e, 0x42, 0xb9, 0xf0, 0xbd,
  0xa1, 0x9b, 0xb7, 0xbb, 0x21, 0x98, 0xcf, 0x3c, 0x97, 0x20, 0x39, 0x3f,
  0xd5, 0x37, 0xbf, 0xb9, 0x1f, 0x43, 0x03, 0xbe, 0xe0, 0x93, 0xbc, 0xbd,
  0x0f, 0xd0, 0xbb, 0x3e, 0x8c, 0xf6, 0xd1, 0xbd, 0xde, 0xfe, 0xa6, 0x3c,
  0xb1, 0x69, 0x93, 0x3d, 0x10, 0xe5, 0x0f, 0xbe, 0x11, 0x61, 0xed, 0xbc,
  0xbb, 0x7f, 0x6b, 0xbd, 0x03, 0x2b, 0x22, 0x3e, 0xfa, 0x66, 0xd0, 0x3c,
  0x23, 0x55, 0x28, 0xbe, 0x11, 0x03, 0x29, 0x3e, 0xcd, 0x93, 0x28, 0xbd,
  0x67, 0x1e, 0x06, 0xbe, 0x76, 0x68, 0x4b, 0xbe, 0x18, 0xc6, 0x1a, 0xbe,
  0x66, 0x76, 0xf6, 0xbb, 0xbc, 0xa2, 0xd6, 0x3d, 0xf2, 0xed, 0x5e, 0xbe,
  0xb9, 0xa4, 0xda, 0x3d, 0xa1, 0x83, 0x5e, 0xbe, 0x1e, 0x93, 0x3a, 0xbe,
  0x00, 0x7c, 0x4e, 0xbe, 0x0d, 0x33, 0x40, 0xbe, 0xb7, 0x4f, 0xcd, 0xbd,
  0xef, 0xac, 0x3c, 0x3e, 0xe2, 0xdd, 0xff, 0xff, 0x10, 0x00, 0x00, 0x00,
  0x0a, 0x00, 0x00, 0x00, 0x1c, 0x00, 0x00, 0x00, 0x38, 0x00, 0x00, 0x00,
  0x04, 0x00, 0x00, 0x00, 0x10, 0x00, 0x00, 0x00, 0x04, 0x00, 0x00, 0x00,
  0x01, 0x00, 0x00, 0x00, 0x08, 0x00, 0x00, 0x00, 0x1a, 0x00, 0x00, 0x00,
  0x73, 0x65, 0x71, 0x75, 0x65, 0x6e, 0x74, 0x69, 0x61, 0x6c, 0x2f, 0x63,
  0x6f, 0x6e, 0x76, 0x32, 0x64, 0x5f, 0x31, 0x2f, 0x43, 0x6f, 0x6e, 0x76,
  0x32, 0x44, 0x00, 0x00, 0x58, 0xdd, 0xff, 0xff, 0x62, 0xde, 0xff, 0xff,
  0x04, 0x00, 0x00, 0x00, 0x80, 0x01, 0x00, 0x00, 0x21, 0xba, 0xc9, 0x3d,
  0xd7, 0x57, 0xa3, 0x3d, 0xa2, 0x95, 0x05, 0xbe, 0x6c, 0x5f, 0xa6, 0xbd,
  0x38, 0xf6, 0x2f, 0x3e, 0x68, 0xa0, 0xd3, 0xbd, 0xc4, 0x24, 0x6e, 0x3d,
  0x40, 0xa3, 0xad, 0xbd, 0x70, 0x4d, 0x8c, 0x3b, 0xc4, 0xb9, 0x6b, 0x3e,
  0x37, 0xfb, 0x97, 0x3d, 0xa5, 0x1c, 0x9a, 0xbd, 0xe2, 0x9b, 0x4f, 0x3e,
  0xf2, 0x37, 0x07, 0x3e, 0x76, 0x81, 0x80, 0x3d, 0xa3, 0xa0, 0xfc, 0x3e,
  0x19, 0x38, 0x9d, 0x3e, 0x92, 0x1f, 0x91, 0x3e, 0xa3, 0x4b, 0xb7, 0xbd,
  0x66, 0xbd, 0xde, 0xbc, 0x8e, 0x01, 0x20, 0xbe, 0x77, 0xe2, 0xd5, 0xbe,
  0x12, 0x72, 0xc9, 0xbe, 0x53, 0x30, 0x34, 0xbe, 0xf5, 0xbf, 0xb1, 0x3e,
  0xa8, 0x7c, 0xb5, 0x3e, 0xfc, 0xd8, 0xd1, 0xbd, 0x7a, 0x6e, 0xf4, 0xbc,
  0x94, 0x68, 0x82, 0xbd, 0xd4, 0x6d, 0xdc, 0x3d, 0x87, 0x66, 0x23, 0xbe,
  0xf1, 0xbe, 0xa1, 0xbe, 0xd4, 0xeb, 0xb7, 0xbc, 0xe5, 0xdf, 0x4f, 0xbe,
  0x1c, 0x93, 0xe3, 0xbd, 0xaf, 0xe4, 0x41, 0x3c, 0xdb, 0x6d, 0x84, 0x3d,
  0xc3, 0x01, 0x11, 0x3e, 0x76, 0xa9, 0x81, 0xbe, 0x10, 0x11, 0xd2, 0xbb,
  0x06, 0x59, 0x8f, 0x3e, 0xe1, 0xd2, 0x8d, 0xbe, 0xd1, 0xa8, 0x88, 0x3d,
  0xdc, 0x16, 0xd3, 0xbd, 0x48, 0xbb, 0xb0, 0xbd, 0x46, 0xb3, 0x49, 0x3e,
  0x88, 0xc7, 0x87, 0xbe, 0x00, 0xc2, 0x0e, 0x3e, 0x5f, 0xfc, 0xbc, 0x3b,
  0xbb, 0x29, 0xf1, 0xbd, 0x63, 0xed, 0xe9, 0xbd, 0x23, 0x73, 0x9a, 0xbd,
  0xb8, 0x30, 0x00, 0xbe, 0x88, 0x18, 0xfd, 0xbd, 0x19, 0xa1, 0xa9, 0x3e,
  0x94, 0x14, 0x64, 0x3e, 0xb3, 0xfe, 0x65, 0xbe, 0x4e, 0x99, 0x00, 0x3f,
  0x0b, 0x02, 0x1a, 0x3d, 0x8e, 0x81, 0x1e, 0x3e, 0x82, 0x5e, 0x36, 0x3e,
  0xf9, 0xb9, 0x03, 0xbe, 0x43, 0x3a, 0x57, 0xbe, 0x55, 0xe8, 0x96, 0xbd,
  0x60, 0x08, 0xbf, 0x3d, 0x03, 0x64, 0x29, 0xbe, 0x40, 0xa8, 0xaa, 0x3d,
  0x04, 0x6d, 0xad, 0xbd, 0x28, 0xf1, 0xeb, 0xbc, 0x4b, 0xfa, 0xa5, 0xbc,
  0xa3, 0xff, 0xcc, 0xbd, 0xb9, 0xc6, 0x7d, 0xbd, 0x9c, 0x63, 0x9a, 0x3d,
  0x84, 0x56, 0xa6, 0xbe, 0x22, 0x2a, 0x88, 0x3d, 0xb6, 0xa0, 0x8e, 0xbe,
  0x09, 0xce, 0x9c, 0x3d, 0x73, 0xfb, 0x92, 0x3d, 0x87, 0x5c, 0xb9, 0xbc,
  0xd3, 0x27, 0xb9, 0xbb, 0xf4, 0x7e, 0x89, 0xbd, 0x1b, 0x5e, 0x4f, 0xbe,
  0x9a, 0xf2, 0x92, 0x3d, 0x4a, 0x4a, 0x71, 0xbc, 0xba, 0xd5, 0x85, 0xbd,
  0xe3, 0x35, 0x51, 0xbe, 0x6c, 0xa3, 0xf1, 0xbd, 0x04, 0x0c, 0x19, 0x3e,
  0xfd, 0xf7, 0xa4, 0xbe, 0x7b, 0x8d, 0x51, 0xbd, 0xa5, 0x51, 0x55, 0xbe,
  0x37, 0x5a, 0x12, 0xbe, 0xae, 0x43, 0xfa, 0xbc, 0x9c, 0xb1, 0xc6, 0x3d,
  0xe2, 0xd4, 0x24, 0x3f, 0x90, 0x16, 0x0e, 0x3e, 0xba, 0xdf, 0xff, 0xff,
  0x10, 0x00, 0x00, 0x00, 0x09, 0x00, 0x00, 0x00, 0x1c, 0x00, 0x00, 0x00,
  0x38, 0x00, 0x00, 0x00, 0x04, 0x00, 0x00, 0x00, 0x08, 0x00, 0x00, 0x00,
  0x04, 0x00, 0x00, 0x00, 0x03, 0x00, 0x00, 0x00, 0x01, 0x00, 0x00, 0x00,
  0x18, 0x00, 0x00, 0x00, 0x73, 0x65, 0x71, 0x75, 0x65, 0x6e, 0x74, 0x69,
  0x61, 0x6c, 0x2f, 0x63, 0x6f, 0x6e, 0x76, 0x32, 0x64, 0x2f, 0x43, 0x6f,
  0x6e, 0x76, 0x32, 0x44, 0x00, 0x00, 0x00, 0x00, 0x30, 0xdf, 0xff, 0xff,
  0x3a, 0xe0, 0xff, 0xff, 0x04, 0x00, 0x00, 0x00, 0x00, 0x01, 0x00, 0x00,
  0x10, 0x0c, 0xf4, 0xbc, 0x04, 0x37, 0x28, 0xbe, 0x4b, 0x44, 0x96, 0x3e,
  0x0f, 0x84, 0x39, 0x3e, 0x65, 0x63, 0xe6, 0x3c, 0xf7, 0xef, 0xb5, 0x3d,
  0xf4, 0x4a, 0x17, 0x3e, 0x95, 0x3d, 0xfd, 0xbd, 0x6e, 0x38, 0x54, 0xbd,
  0x33, 0x3e, 0x8f, 0x3d, 0xb0, 0x95, 0x31, 0x3e, 0x81, 0xa0, 0xb7, 0xbd,
  0x00, 0x46, 0x38, 0xbd, 0x17, 0x7d, 0xcc, 0xbd, 0x3b, 0xea, 0x01, 0xbd,
  0x73, 0x24, 0x59, 0xbc, 0x0b, 0x48, 0x91, 0x3c, 0x84, 0xbf, 0x5b, 0xbe,
  0xe6, 0x40, 0x63, 0x3e, 0x51, 0xb2, 0x9d, 0xbd, 0x47, 0x1d, 0xcf, 0x3c,
  0xca, 0xc1, 0x0d, 0x3e, 0xce, 0x66, 0x20, 0xbe, 0x0a, 0x9d, 0xe2, 0xbd,
  0x5c, 0x5d, 0x99, 0xbc, 0x22, 0x96, 0x04, 0x3e, 0x43, 0xe1, 0x1c, 0x3e,
  0x80, 0xad, 0x89, 0x3b, 0x4b, 0x3f, 0x83, 0x3e, 0xd5, 0x40, 0x1a, 0xbe,
  0x11, 0xd0, 0x56, 0xbd, 0x85, 0xd6, 0xdf, 0x3d, 0x88, 0x63, 0x92, 0x3b,
  0x89, 0xd5, 0x3e, 0xbe, 0x79, 0xba, 0xef, 0x3c, 0xfc, 0x6d, 0x14, 0xbf,
  0xbd, 0x4b, 0x11, 0xbe, 0x62, 0x28, 0x17, 0x3e, 0x45, 0xdc, 0x02, 0xbf,
  0x41, 0xcb, 0xa9, 0xbe, 0xca, 0x91, 0xbb, 0x3d, 0x93, 0xbe, 0x88, 0xbe,
  0x52, 0xf9, 0x68, 0xbe, 0x52, 0x7c, 0xc2, 0xbf, 0xa1, 0x73, 0xeb, 0x3d,
  0xda, 0xd0, 0x48, 0xbe, 0x6f, 0x49, 0x1b, 0x3d, 0x29, 0xa9, 0xb6, 0xbe,
  0xf2, 0x3e, 0xe6, 0xbd, 0x7e, 0xf3, 0x84, 0xbe, 0x32, 0x74, 0x81, 0x3e,
  0x7a, 0x0d, 0x93, 0xbe, 0x07, 0x00, 0x72, 0xbd, 0xe7, 0x56, 0xa3, 0x3d,
  0x98, 0xa3, 0x9c, 0xbd, 0x26, 0xcf, 0x2e, 0xbe, 0x47, 0x79, 0xc5, 0xbc,
  0x95, 0xcd, 0xad, 0x3d, 0x99, 0xed, 0x8f, 0x3d, 0xe0, 0x87, 0x92, 0x3c,
  0xf1, 0xaf, 0xb1, 0xbd, 0x73, 0xd4, 0x4e, 0xbe, 0x67, 0xb0, 0x65, 0xbd,
  0x2a, 0xc9, 0x80, 0x3d, 0x12, 0xe1, 0xff, 0xff, 0x10, 0x00, 0x00, 0x00,
  0x08, 0x00, 0x00, 0x00, 0x14, 0x00, 0x00, 0x00, 0x30, 0x00, 0x00, 0x00,
  0x02, 0x00, 0x00, 0x00, 0x04, 0x00, 0x00, 0x00, 0x10, 0x00, 0x00, 0x00,
  0x19, 0x00, 0x00, 0x00, 0x73, 0x65, 0x71, 0x75, 0x65, 0x6e, 0x74, 0x69,
  0x61, 0x6c, 0x2f, 0x64, 0x65, 0x6e, 0x73, 0x65, 0x5f, 0x31, 0x2f, 0x4d,
  0x61, 0x74, 0x4d, 0x75, 0x6c, 0x00, 0x00, 0x00, 0x80, 0xe0, 0xff, 0xff,
  0x8a, 0xe1, 0xff, 0xff, 0x04, 0x00, 0x00, 0x00, 0x00, 0x1c, 0x00, 0x00,
  0x32, 0xf1, 0x34, 0xbe, 0x95, 0x5b, 0xb3, 0x3e, 0x70, 0xe1, 0x4f, 0x3e,
  0xca, 0xaf, 0xaf, 0x3d, 0xbf, 0xcc, 0x33, 0x3e, 0x95, 0x6f, 0x28, 0x3e,
  0xd6, 0xf6, 0x04, 0x3e, 0x56, 0x25, 0xba, 0x3d, 0x27, 0xf9, 0xb6, 0xbd,
  0xa3, 0xd2, 0x7e, 0xbe, 0x7e, 0xd3, 0x18, 0xbd, 0xce, 0xed, 0x82, 0xbc,
  0x92, 0xa6, 0xbc, 0xbd, 0xbc, 0x0f, 0x52, 0xbd, 0xa3, 0x37, 0xdc, 0x3e,
  0x19, 0xc7, 0x04, 0xbe, 0x8f, 0x4f, 0x30, 0xbb, 0x69, 0x45, 0x2a, 0x3e,
  0xad, 0x5e, 0x18, 0x3e, 0x2a, 0x64, 0x34, 0x3c, 0xf4, 0x8b, 0xbb, 0x3e,
  0xed, 0xa0, 0x33, 0x3d, 0x03, 0x7b, 0x06, 0x3e, 0xa3, 0xd9, 0x89, 0xbd,
  0x90, 0x6f, 0xbb, 0xbd, 0xeb, 0xfc, 0xf7, 0x3c, 0x6b, 0xdf, 0x8c, 0x3e,
  0x4d, 0xe0, 0x22, 0x3d, 0x01, 0xd6, 0x10, 0x3d, 0xa7, 0xad, 0x19, 0xbe,
  0x88, 0x2b, 0x02, 0x3e, 0x25, 0x92, 0x4f, 0xbc, 0x43, 0x7a, 0xdc, 0x3e,
  0xd6, 0xfa, 0x86, 0x3c, 0x4c, 0x22, 0x8a, 0x3e, 0xd4, 0x2d, 0x59, 0x3e,
  0x1e, 0xad, 0x2a, 0x3e, 0x83, 0xff, 0x13, 0x3e, 0xa4, 0xa6, 0x2a, 0x3e,
  0x1c, 0xcf, 0x24, 0xbe, 0x7b, 0x1a, 0xf9, 0xbd, 0xc7, 0x9f, 0xb3, 0x3c,
  0x66, 0x04, 0x1f, 0xbd, 0x3e, 0x91, 0x2f, 0xbc, 0xde, 0xb2, 0xe5, 0xbd,
  0x9d, 0xc9, 0xe0, 0xbd, 0x27, 0x22, 0x92, 0x3d, 0xe9, 0x77, 0x2d, 0x3e,
  0x11, 0x7e, 0xb3, 0x3e, 0xfa, 0x93, 0x77, 0x3e, 0xdf, 0x92, 0x30, 0xbe,
  0x20, 0x75, 0x60, 0xbd, 0xf2, 0x26, 0x13, 0x3f, 0x5d, 0xb7, 0x31, 0x3e,
  0x94, 0x0c, 0x0e, 0x3e, 0x7b, 0xd8, 0x4f, 0xbd, 0x83, 0xf0, 0x00, 0xbe,
  0xf0, 0x9f, 0x8e, 0xbe, 0x73, 0x2d, 0xfe, 0x3d, 0x90, 0x23, 0x6d, 0x3b,
  0xe5, 0xe7, 0xa0, 0xbe, 0xce, 0x0b, 0x87, 0x3e, 0x95, 0x2a, 0x1f, 0x3d,
  0x28, 0xf4, 0xc7, 0xbc, 0x6c, 0xe5, 0x02, 0xbe, 0x80, 0x71, 0x46, 0x3e,
  0x93, 0xc1, 0xd8, 0x3d, 0x7b, 0x80, 0x13, 0x3e, 0x5e, 0x8f, 0x56, 0x3e,
  0xab, 0x0c, 0xbd, 0x3d, 0xe6, 0xbf, 0x24, 0x3d, 0xb5, 0x46, 0x33, 0xbd,
  0x67, 0xdd, 0x00, 0x3d, 0xed, 0x2e, 0x47, 0xbe, 0xdf, 0x26, 0xbb, 0x3e,
  0x76, 0x99, 0x5a, 0xbd, 0x97, 0x4f, 0x30, 0xbb, 0x5d, 0x4d, 0x6c, 0x3e,
  0x18, 0x73, 0xef, 0x3c, 0x84, 0xc7, 0xc5, 0xbe, 0x21, 0x05, 0x31, 0xbe,
  0x78, 0x65, 0xf0, 0x3d, 0x2d, 0x7b, 0x91, 0xbd, 0x0a, 0x8a, 0xdf, 0x3d,
  0xa7, 0xf9, 0x55, 0x3e, 0x28, 0x48, 0x24, 0x3d, 0xb3, 0xf9, 0x5d, 0x3e,
  0xcc, 0xf9, 0xc1, 0x3d, 0xfd, 0x36, 0x87, 0x3d, 0xd8, 0x68, 0xcd, 0xbd,
  0xc8, 0xae, 0x43, 0x3e, 0xd9, 0xb5, 0x70, 0xbd, 0xe5, 0x99, 0xa5, 0x3d,
  0x1c, 0xeb, 0x18, 0x3e, 0x65, 0x86, 0x10, 0x3e, 0xe0, 0xdd, 0x5c, 0xbe,
  0x91, 0x08, 0x1c, 0xbe, 0x61, 0xcb, 0xf0, 0x3d, 0xed, 0x95, 0x81, 0xbe,
  0x24, 0x9e, 0x10, 0xbe, 0x2e, 0x92, 0xa1, 0x3e, 0x1f, 0x31, 0x5c, 0xbe,
  0xcc, 0xa1, 0x83, 0xbe, 0x7c, 0x81, 0x67, 0x3c, 0xdb, 0x89, 0x5e, 0x3d,
  0x9e, 0x40, 0x09, 0xbe, 0xac, 0x17, 0x9d, 0x3d, 0x89, 0x4d, 0xf8, 0xbd,
  0x89, 0x6b, 0xc1, 0xbc, 0x3d, 0x25, 0x3e, 0xbe, 0x86, 0xad, 0xa2, 0x3e,
  0x54, 0x5a, 0xf2, 0xbc, 0x1c, 0x81, 0x8f, 0x3e, 0xe1, 0x78, 0x6f, 0x3c,
  0x3b, 0x28, 0xf7, 0x3d, 0x8f, 0xbf, 0x20, 0x3e, 0xcc, 0x27, 0xc6, 0xbd,
  0xce, 0xed, 0xd0, 0x3d, 0xdd, 0xb7, 0x04, 0xbd, 0x98, 0xb6, 0x69, 0xbe,
  0x8d, 0x5d, 0x20, 0xbe, 0x9f, 0xb2, 0x53, 0x3e, 0x3a, 0x04, 0x66, 0xbe,
  0xf0, 0xaa, 0x17, 0xbd, 0xcd, 0xe1, 0x99, 0xbd, 0xe4, 0x87, 0x07, 0xbe,
  0xa5, 0x38, 0x3a, 0xbd, 0x1b, 0x13, 0xa7, 0x3e, 0x0c, 0xea, 0x91, 0x3e,
  0xde, 0x20, 0x29, 0xbc, 0xc2, 0x50, 0x51, 0xbe, 0x94, 0xa7, 0xaa, 0x3e,
  0x6b, 0x2d, 0xef, 0x3a, 0x32, 0x09, 0x27, 0xbe, 0x56, 0x39, 0x7e, 0x3e,
  0x13, 0x95, 0x62, 0xbe, 0x57, 0x8d, 0x4e, 0xbe, 0xfc, 0x74, 0x08, 0x3e,
  0xa8, 0xcc, 0x52, 0xbe, 0x6e, 0x13, 0x65, 0xbd, 0x04, 0x65, 0xcd, 0x3d,
  0x4e, 0x38, 0x4f, 0x3e, 0x46, 0x5b, 0xa3, 0xbc, 0xfa, 0xaa, 0x5f, 0x3e,
  0xa0, 0xc8, 0x12, 0x3e, 0xb4, 0xb9, 0x82, 0x3e, 0x8b, 0xaa, 0xde, 0xbc,
  0x11, 0x3a, 0xda, 0x3e, 0xe9, 0xd0, 0x08, 0x3f, 0x6d, 0x60, 0x80, 0xbe,
  0xbf, 0x47, 0x89, 0x3e, 0x1e, 0xec, 0x76, 0x3d, 0xa7, 0xa4, 0x01, 0x3d,
  0x90, 0x23, 0xac, 0x3d, 0x17, 0x7b, 0x32, 0x3d, 0x7e, 0x35, 0x17, 0xbc,
  0xfb, 0x0a, 0x55, 0x3e, 0x00, 0x2a, 0x8c, 0x3e, 0xeb, 0x60, 0x92, 0x3d,
  0x07, 0x50, 0xbd, 0xbd, 0xe8, 0x34, 0x76, 0x3d, 0x47, 0x64, 0x05, 0x3e,
  0x97, 0xaa, 0xaf, 0xbd, 0x68, 0x72, 0x9e, 0xbd, 0xfe, 0xc9, 0xc8, 0x3e,
  0x8d, 0x72, 0x09, 0xbb, 0x2b, 0xfc, 0x02, 0x3d, 0x86, 0xe8, 0x52, 0xbd,
  0x42, 0xfb, 0xae, 0x3d, 0x50, 0xa7, 0x8c, 0x3d, 0x5a, 0xf0, 0xea, 0xbc,
  0x64, 0x40, 0x61, 0xbd, 0xa4, 0xa6, 0x0f, 0x3e, 0x9d, 0x49, 0xeb, 0x3d,
  0x89, 0x1e, 0xc1, 0xbc, 0x6b, 0x87, 0x52, 0x3e, 0x44, 0x68, 0x31, 0x3e,
  0x0c, 0xbf, 0xe4, 0xbe, 0xe5, 0x71, 0x9a, 0xbd, 0x07, 0x76, 0x0e, 0xbd,
  0x06, 0xbd, 0x05, 0x3f, 0x4d, 0x57, 0x89, 0xbe, 0x08, 0xd7, 0xef, 0xbc,
  0x18, 0xbb, 0xa9, 0x3c, 0x4c, 0xd7, 0xcf, 0x3d, 0xa6, 0x51, 0x0c, 0x3e,
  0x46, 0xc8, 0xf7, 0xbd, 0x88, 0x12, 0xc6, 0xbd, 0xe4, 0x11, 0x2e, 0x3c,
  0x5a, 0xea, 0xdb, 0xbd, 0xd7, 0xc2, 0x9d, 0xbd, 0x20, 0x92, 0x23, 0x3b,
  0x84, 0x77, 0x9b, 0x3e, 0x13, 0x6e, 0xa7, 0xbe, 0x1b, 0x42, 0xa7, 0xbe,
  0x7f, 0xaf, 0x88, 0x3d, 0xd0, 0x2b, 0x8a, 0x3d, 0xe1, 0xfc, 0x4c, 0xbc,
  0x35, 0xec, 0x98, 0xbe, 0x7a, 0x59, 0xa9, 0x3d, 0xc0, 0xd1, 0x7b, 0x3e,
  0xf7, 0xeb, 0x23, 0x3e, 0xb1, 0x4d, 0x67, 0xbe, 0x92, 0x49, 0x8f, 0xbd,
  0xdf, 0x51, 0x61, 0x3e, 0x94, 0xfb, 0xa7, 0x3c, 0x63, 0x4b, 0xbc, 0xbe,
  0x9c, 0xc0, 0x5d, 0x3e, 0x42, 0x3e, 0x81, 0x3e, 0xb5, 0x63, 0x8c, 0xbd,
  0xac, 0xb9, 0xef, 0xbd, 0x90, 0x68, 0x96, 0xbe, 0x95, 0xc0, 0x51, 0xbe,
  0xf9, 0x58, 0xc9, 0xbc, 0x0c, 0x37, 0xad, 0x3d, 0xbc, 0x88, 0x3e, 0xbd,
  0xbb, 0xb2, 0x94, 0xbd, 0xea, 0x79, 0x53, 0x3d, 0xc7, 0xa3, 0x09, 0xbe,
  0x28, 0x35, 0x74, 0xbe, 0x6b, 0x37, 0x79, 0x3d, 0xd6, 0x71, 0xfa, 0xbd,
  0x12, 0xe9, 0x96, 0xbe, 0xf7, 0x08, 0x93, 0x3c, 0xad, 0x2e, 0x29, 0x3e,
  0x5f, 0xda, 0x19, 0xbf, 0x73, 0x66, 0x98, 0xbd, 0x30, 0x4e, 0xfe, 0xbd,
  0x1d, 0x43, 0x8e, 0xbe, 0xb0, 0x16, 0x5f, 0x3d, 0x09, 0xe2, 0xcc, 0xbe,
  0xf9, 0xbf, 0x8f, 0x3d, 0xa9, 0xbd, 0x11, 0x3c, 0x42, 0xbb, 0x12, 0x3e,
  0xb6, 0x91, 0x42, 0xbf, 0x24, 0x9e, 0x88, 0x3c, 0xc1, 0xae, 0x64, 0x3d,
  0x05, 0xb0, 0x76, 0xbe, 0x3f, 0xbf, 0x82, 0xbe, 0xc4, 0xe9, 0x7e, 0x3e,
  0x85, 0x8a, 0xe7, 0x3c, 0xf5, 0x21, 0x36, 0x3e, 0xb2, 0x9e, 0x0e, 0x3e,
  0xbc, 0x08, 0x08, 0x3f, 0x21, 0x77, 0x0f, 0x3f, 0x32, 0x55, 0x7f, 0x3b,
  0x2a, 0x3e, 0x60, 0xbc, 0xcd, 0xd2, 0xdf, 0xbb, 0x50, 0xb4, 0x4a, 0x3d,
  0xbb, 0x2b, 0xb8, 0x3d, 0x21, 0x72, 0xc5, 0x3d, 0x4a, 0x35, 0x15, 0x3d,
  0xc5, 0xe5, 0x5e, 0xbc, 0x5f, 0xcb, 0x85, 0xbe, 0xd8, 0x1c, 0xcb, 0xbe,
  0x87, 0x53, 0x92, 0x3e, 0xda, 0x22, 0xa3, 0x3e, 0x8b, 0x3b, 0xb5, 0x3e,
  0xde, 0xd7, 0xd5, 0x3e, 0xa9, 0xcc, 0x07, 0x3f, 0x74, 0x96, 0x4b, 0x3f,
  0xfd, 0x15, 0x68, 0xbd, 0xa7, 0x44, 0x14, 0x3e, 0x27, 0x83, 0x01, 0x3d,
  0x0f, 0x41, 0x07, 0x3b, 0x37, 0xb5, 0x2a, 0x3e, 0xe3, 0x42, 0xe8, 0xbd,
  0x5a, 0xf0, 0x07, 0x3d, 0x67, 0x2b, 0x92, 0x3d, 0x11, 0xaa, 0x37, 0xbe,
  0xd1, 0x37, 0xfc, 0x3d, 0x30, 0xcf, 0x63, 0x3e, 0xc3, 0x83, 0x0a, 0x3e,
  0x63, 0xc5, 0xb2, 0xbc, 0xf4, 0x4e, 0xec, 0x3e, 0x9f, 0x6a, 0x91, 0x3e,
  0x4b, 0x8d, 0xa0, 0x3f, 0xfb, 0x9a, 0x8d, 0xbc, 0xf9, 0x8a, 0x0c, 0xbe,
  0x68, 0x5c, 0x36, 0x3d, 0xb5, 0x4d, 0x79, 0xba, 0xac, 0xc7, 0x01, 0x3e,
  0x2e, 0xfb, 0x08, 0xbd, 0x52, 0x14, 0xe2, 0x3c, 0x90, 0x63, 0xa3, 0x3d,
  0x3a, 0xe5, 0x8a, 0xbe, 0x37, 0x80, 0x61, 0x3e, 0xa6, 0x73, 0x4b, 0x3e,
  0x85, 0xbd, 0x7e, 0x3e, 0xf3, 0x52, 0xeb, 0xbe, 0x34, 0x54, 0x8e, 0x3c,
  0xa7, 0x03, 0x13, 0xbe, 0x59, 0xdc, 0x95, 0x3f, 0xef, 0x7e, 0xb2, 0x3d,
  0x24, 0x08, 0x37, 0xbe, 0x07, 0x8d, 0xfa, 0xbc, 0x04, 0xc2, 0x60, 0xbc,
  0x76, 0xe9, 0x7a, 0x3e, 0x6f, 0xa2, 0xaf, 0xbd, 0xae, 0x9a, 0x98, 0x3d,
  0x49, 0xdd, 0x91, 0x3d, 0xbb, 0xff, 0x6c, 0xbe, 0x77, 0xca, 0x1b, 0xba,
  0xb0, 0x79, 0x51, 0x3d, 0x0a, 0x5d, 0x0a, 0xbd, 0x87, 0x49, 0x89, 0xbe,
  0x0b, 0x3a, 0x43, 0xbd, 0x9d, 0x63, 0xb7, 0x3d, 0x4e, 0xba, 0xff, 0x3d,
  0x2a, 0x81, 0x72, 0x3e, 0xcb, 0x46, 0x8b, 0xbe, 0xcb, 0x69, 0x53, 0xbd,
  0x20, 0xc5, 0x49, 0xbc, 0x53, 0x68, 0xaa, 0x3e, 0x0a, 0xab, 0x74, 0xbe,
  0x65, 0x6a, 0xbb, 0x3d, 0x9f, 0x55, 0xb3, 0xbb, 0xcd, 0xee, 0x93, 0xbe,
  0x04, 0x61, 0x15, 0xbe, 0x70, 0x9c, 0x63, 0x3e, 0x00, 0x81, 0x9b, 0x3e,
  0xf3, 0xd7, 0x20, 0xbe, 0xb3, 0xd1, 0xc8, 0xbd, 0x19, 0x70, 0xd3, 0xbb,
  0x45, 0xe0, 0x12, 0xbd, 0xae, 0xf7, 0x20, 0xbe, 0x24, 0xf3, 0x20, 0xbe,
  0xb6, 0x40, 0x22, 0xbd, 0xe6, 0x0a, 0x71, 0x3d, 0x22, 0xf1, 0xf2, 0x3d,
  0xa5, 0x72, 0xa1, 0xbe, 0x65, 0x52, 0x00, 0x3e, 0x5b, 0x7b, 0xa2, 0xbc,
  0x56, 0xe5, 0xf8, 0xbd, 0xc5, 0xf9, 0xdb, 0xbd, 0x4a, 0x94, 0x85, 0x3d,
  0x6b, 0x11, 0x85, 0x3e, 0x35, 0x65, 0x8e, 0xbe, 0x9e, 0x29, 0xe0, 0x3b,
  0xe4, 0xc2, 0x5c, 0xbe, 0xb3, 0x4f, 0x88, 0x3e, 0xe2, 0xaf, 0x1a, 0x3e,
  0x3c, 0x2f, 0x3a, 0x3c, 0x3d, 0xeb, 0x1f, 0xbe, 0xb9, 0x39, 0x15, 0xbe,
  0x3e, 0xec, 0x51, 0xbe, 0x12, 0xd0, 0xc6, 0xbd, 0x7c, 0x0d, 0xab, 0xbe,
  0xee, 0x8a, 0x81, 0xbe, 0x28, 0x9e, 0x1e, 0xbe, 0x4a, 0x85, 0x01, 0xbc,
  0xac, 0x2a, 0x65, 0x3e, 0xb1, 0x66, 0x12, 0x3f, 0xc9, 0xac, 0x0c, 0xbd,
  0x26, 0x91, 0x86, 0xbd, 0x93, 0xa6, 0xaf, 0xbc, 0x18, 0x31, 0xd0, 0x3e,
  0x66, 0xd7, 0xda, 0x3c, 0x3b, 0x0f, 0x07, 0xbe, 0xc6, 0xef, 0x2e, 0xbe,
  0x2e, 0x00, 0x59, 0xbe, 0xf1, 0xf9, 0x23, 0xbe, 0xae, 0x6f, 0xba, 0x3d,
  0x76, 0x90, 0xb3, 0xbe, 0x40, 0x73, 0xd1, 0xbc, 0xa6, 0xf7, 0x88, 0xbe,
  0xcd, 0xe7, 0xc8, 0x3c, 0xf1, 0x36, 0x2e, 0x3b, 0x62, 0xeb, 0xda, 0x3e,
  0x25, 0x28, 0xc1, 0x3d, 0x8e, 0x51, 0x39, 0xbe, 0x05, 0x2a, 0x2e, 0x3e,
  0xff, 0xd2, 0xcc, 0x3f, 0xdc, 0x1a, 0xa3, 0x3d, 0x78, 0xd5, 0xb7, 0xbd,
  0x90, 0xa3, 0x8e, 0xbe, 0x5b, 0xd3, 0x5f, 0xbe, 0xa9, 0x9a, 0x44, 0xbe,
  0xbe, 0x0d, 0xb1, 0xbd, 0x05, 0x0e, 0x71, 0xbe, 0x31, 0x01, 0x3b, 0x3c,
  0x13, 0x36, 0x53, 0x3c, 0xab, 0xbf, 0x80, 0xbe, 0x01, 0x08, 0x84, 0x3e,
  0xd2, 0x76, 0x45, 0x3f, 0x3d, 0x57, 0xe6, 0xbb, 0x9c, 0x62, 0xa4, 0xbc,
  0xc2, 0xc2, 0xe7, 0x3e, 0x46, 0xf1, 0xb6, 0x3f, 0x1b, 0x8d, 0x9b, 0x3d,
  0x47, 0xb4, 0x8b, 0x3d, 0x43, 0x35, 0x45, 0x3d, 0xb4, 0x3d, 0x2c, 0xbe,
  0x35, 0x03, 0x77, 0xbe, 0xb9, 0x23, 0x11, 0xbe, 0xc5, 0x85, 0xab, 0xbe,
  0xf8, 0xc5, 0x71, 0xbd, 0x35, 0x14, 0x4c, 0x3d, 0x57, 0x9c, 0x0e, 0xbe,
  0x23, 0xde, 0xd5, 0x3e, 0x8e, 0x41, 0x24, 0x3f, 0x1c, 0xc0, 0x82, 0xbd,
  0xbb, 0x70, 0x64, 0x3d, 0x21, 0x68, 0x0a, 0xbe, 0x12, 0x4b, 0x68, 0x3f,
  0xa9, 0x5a, 0xfb, 0x3d, 0x44, 0xd3, 0xfe, 0xbd, 0x57, 0x9b, 0x91, 0xbc,
  0xf9, 0x85, 0xf2, 0xbe, 0x8b, 0x37, 0x64, 0xbd, 0x01, 0x74, 0x19, 0xbd,
  0xb9, 0x30, 0x24, 0xbe, 0x1d, 0x50, 0x82, 0xbe, 0xc1, 0x5d, 0x44, 0xbe,
  0xc2, 0x15, 0xfb, 0x3d, 0xc6, 0x5c, 0x87, 0x3e, 0xa9, 0x83, 0x8d, 0x3e,
  0xc7, 0xc5, 0x8a, 0xbe, 0xd1, 0x5f, 0x84, 0x3d, 0x02, 0x9d, 0x59, 0xbc,
  0xd4, 0x9a, 0x2d, 0x3f, 0x3d, 0xf4, 0x46, 0xbe, 0xab, 0x1f, 0xd2, 0xbc,
  0x5a, 0x4d, 0x01, 0xbe, 0xce, 0xd0, 0xa8, 0xbd, 0xa5, 0x28, 0x92, 0xbe,
  0xb3, 0x79, 0xbd, 0x3d, 0x8a, 0x9f, 0xc5, 0xbe, 0xe9, 0x5a, 0xe6, 0xbd,
  0x27, 0x44, 0x3c, 0xbe, 0xce, 0x6b, 0xcf, 0xbd, 0x12, 0xf7, 0x17, 0x3d,
  0x69, 0x2c, 0xa0, 0x3e, 0x81, 0x0f, 0xa5, 0xbe, 0x11, 0x2d, 0x00, 0xbd,
  0xf9, 0xc4, 0x18, 0xbe, 0x8f, 0xcf, 0x08, 0x3f, 0x5f, 0x9b, 0x3f, 0xbe,
  0x50, 0x36, 0x55, 0xbe, 0x66, 0x37, 0x23, 0xbd, 0x9a, 0xaa, 0x16, 0xbe,
  0x74, 0x1f, 0x56, 0xbe, 0x19, 0x16, 0xd9, 0xbb, 0xb3, 0xa1, 0x94, 0xbe,
  0x51, 0x1b, 0x67, 0xbe, 0x31, 0x2d, 0x15, 0xbe, 0xc4, 0xf0, 0xaf, 0xbd,
  0xd4, 0xc0, 0xae, 0xbe, 0xe6, 0x64, 0x55, 0x3e, 0x00, 0x82, 0xce, 0xbd,
  0xd2, 0x85, 0x82, 0x3e, 0xd3, 0x9d, 0x3d, 0xbe, 0x97, 0xef, 0x92, 0xbd,
  0xb9, 0x40, 0xf3, 0x3d, 0x1f, 0xde, 0x47, 0xbd, 0xa2, 0xf3, 0x5e, 0xbc,
  0xce, 0xcb, 0xf5, 0x3d, 0x3f, 0xec, 0x75, 0x3e, 0xf4, 0x58, 0x99, 0xbd,
  0xfa, 0x51, 0xe0, 0xbc, 0xa2, 0x4c, 0x00, 0xbd, 0x49, 0x57, 0xcc, 0x3c,
  0xdd, 0x59, 0xb3, 0x3c, 0xdd, 0xa3, 0x94, 0x3e, 0xb4, 0x14, 0x34, 0xbd,
  0x57, 0xd8, 0x1a, 0x3e, 0x53, 0xcd, 0x9c, 0x3e, 0xa7, 0x8a, 0xb2, 0x3e,
  0x4d, 0x46, 0x19, 0x3e, 0x4d, 0x90, 0xf0, 0xbc, 0x98, 0x6e, 0x0e, 0x3d,
  0x2a, 0x75, 0xa8, 0xbd, 0xdd, 0xf8, 0xa8, 0xbb, 0x1c, 0xed, 0xb1, 0x3d,
  0xf8, 0xc5, 0x8d, 0xbd, 0x56, 0x1e, 0xbe, 0xbd, 0xba, 0xe2, 0xf3, 0x3d,
  0x86, 0x4c, 0x05, 0xbe, 0xf8, 0xbb, 0xc5, 0xba, 0xa1, 0x55, 0x2e, 0x3e,
  0xf9, 0x45, 0x31, 0x3e, 0x1b, 0x12, 0xa1, 0x3e, 0xa8, 0x49, 0x05, 0x3f,
  0x12, 0x9a, 0x0a, 0x3f, 0x98, 0xe9, 0x46, 0x3f, 0x27, 0x88, 0x12, 0xbe,
  0xe5, 0x4c, 0x84, 0x3d, 0xf5, 0xc3, 0xc6, 0xbd, 0x96, 0x89, 0x02, 0xbd,
  0x3a, 0x9c, 0x3c, 0x3c, 0x57, 0xee, 0x17, 0xbe, 0x57, 0x74, 0xdb, 0xbd,
  0xd0, 0x1d, 0xa1, 0xbb, 0x9c, 0xb4, 0x91, 0xbe, 0x15, 0xc5, 0x0a, 0x3d,
  0x70, 0x18, 0x9f, 0x3d, 0x9e, 0x67, 0x6d, 0x3e, 0x5e, 0xfc, 0x8c, 0xbd,
  0x33, 0xfa, 0x98, 0x3e, 0xc3, 0x72, 0x99, 0x3e, 0x67, 0x62, 0x47, 0x3f,
  0xbf, 0xd9, 0x45, 0xbd, 0x47, 0xb4, 0xe6, 0xbd, 0x84, 0x14, 0x68, 0xbd,
  0x4d, 0x96, 0x00, 0xbe, 0x1e, 0x58, 0x20, 0x3e, 0x43, 0x33, 0xe1, 0xbd,
  0x74, 0x1d, 0x32, 0xbd, 0x61, 0x52, 0xc1, 0x3d, 0xe0, 0x27, 0xf1, 0xbe,
  0x2e, 0x02, 0xec, 0x3d, 0x09, 0x9a, 0x02, 0x3e, 0x1d, 0x45, 0x8f, 0x3e,
  0xa9, 0x6a, 0x23, 0xbe, 0xbf, 0xed, 0x70, 0x3d, 0x26, 0x6f, 0x30, 0x3e,
  0x4d, 0xf3, 0x93, 0x3f, 0xec, 0x0e, 0x57, 0x3e, 0xee, 0xe5, 0x13, 0xbe,
  0x21, 0x04, 0xa1, 0xbd, 0x17, 0x60, 0x7a, 0xbd, 0x97, 0x51, 0x4e, 0x3e,
  0xe0, 0x13, 0x3c, 0xbe, 0x04, 0xa4, 0xb9, 0x3c, 0x67, 0x21, 0xe7, 0x3d,
  0xd2, 0xbd, 0x9b, 0xbe, 0x8a, 0x04, 0xc6, 0x3c, 0x31, 0x83, 0x89, 0x3c,
  0x4d, 0xbc, 0x93, 0x3e, 0xde, 0x3c, 0x4b, 0xbd, 0x57, 0x2f, 0x98, 0x3c,
  0xdf, 0x95, 0xa3, 0x3d, 0x8e, 0xdf, 0x14, 0x3e, 0xc4, 0x1b, 0x1d, 0x3d,
  0x3c, 0xe9, 0x29, 0xbe, 0xcb, 0xe8, 0x82, 0xbd, 0x61, 0xac, 0x80, 0x3c,
  0x69, 0xdd, 0x11, 0x3e, 0xf3, 0xec, 0x34, 0x3d, 0x31, 0x6d, 0x73, 0xbd,
  0x68, 0x6f, 0x02, 0x3e, 0x78, 0x22, 0x76, 0xbe, 0x45, 0xf8, 0x09, 0x3d,
  0x6f, 0x2c, 0x48, 0x3d, 0x39, 0xa1, 0x3c, 0x3e, 0xc6, 0x94, 0x5e, 0x3d,
  0xf3, 0x42, 0xb0, 0x3d, 0x99, 0x4a, 0xb1, 0xbd, 0x0d, 0xc1, 0x14, 0xbe,
  0x58, 0x8d, 0x31, 0x3e, 0x6f, 0xcd, 0x3d, 0x3e, 0x7a, 0x1b, 0xf2, 0xbc,
  0x3a, 0x9b, 0x95, 0x3d, 0xa6, 0xce, 0x9f, 0xbb, 0x78, 0xca, 0xfe, 0xbb,
  0xe2, 0xfa, 0x23, 0xbd, 0x13, 0xcd, 0xc3, 0x3d, 0xa7, 0xd0, 0x98, 0xbe,
  0x9a, 0x4b, 0xe3, 0xbd, 0x1e, 0x4e, 0xc5, 0x3b, 0xf1, 0x79, 0x8f, 0x3d,
  0xaf, 0x8f, 0xbe, 0x3c, 0x0f, 0xb2, 0x67, 0xbe, 0xaa, 0x78, 0x6b, 0x3e,
  0xf7, 0xed, 0x55, 0x3d, 0xa1, 0x80, 0xf9, 0x3d, 0x79, 0x24, 0x40, 0x3e,
  0x5d, 0x89, 0x9d, 0xbe, 0xfa, 0x8e, 0x09, 0xbf, 0xba, 0xa9, 0x47, 0xbe,
  0x89, 0xa2, 0x35, 0xbc, 0xeb, 0xbd, 0x0a, 0xbe, 0x08, 0xec, 0xb5, 0xbe,
  0xec, 0x0c, 0x90, 0xbe, 0x65, 0xe7, 0xfc, 0xbd, 0xf5, 0x8a, 0x80, 0x3b,
  0xf2, 0x6a, 0x80, 0xbe, 0x82, 0xf4, 0xe0, 0xbd, 0xd3, 0xb9, 0x9b, 0xbd,
  0x12, 0xfc, 0xcf, 0xbd, 0xff, 0xe1, 0x24, 0x3e, 0x26, 0x99, 0xb2, 0xbd,
  0xb3, 0x16, 0xd3, 0x3e, 0x3d, 0x33, 0xd4, 0xbe, 0x7e, 0x46, 0xa0, 0xbe,
  0x64, 0xaa, 0x61, 0xbe, 0x9f, 0x3b, 0xad, 0xbd, 0xed, 0x19, 0x30, 0x3c,
  0xd8, 0x62, 0x8e, 0xbc, 0x2e, 0x68, 0x86, 0xbc, 0x16, 0xe2, 0xa2, 0x3d,
  0x9f, 0x7c, 0x30, 0xbe, 0xe3, 0x06, 0x6f, 0x3c, 0x34, 0xed, 0x6c, 0xbe,
  0x43, 0xcd, 0xb8, 0x3d, 0x7e, 0xfe, 0xb7, 0xbd, 0xb8, 0x5a, 0x40, 0x3d,
  0x9c, 0x1a, 0x81, 0x3d, 0xfe, 0x31, 0xf2, 0x3d, 0x90, 0x8c, 0xee, 0x3b,
  0x60, 0x59, 0xd0, 0x3d, 0xd5, 0xfd, 0x92, 0xbe, 0x28, 0xb0, 0xed, 0xb9,
  0x7c, 0xc2, 0xd5, 0xbd, 0xfb, 0xcf, 0x3e, 0x3e, 0x67, 0xdc, 0x99, 0x3e,
  0x39, 0x23, 0x8e, 0x3d, 0xe4, 0xa0, 0x8b, 0x3d, 0xb5, 0x8a, 0x92, 0x3d,
  0x6e, 0x21, 0x56, 0x3c, 0xd9, 0xd3, 0x91, 0xbd, 0x79, 0x8b, 0x6e, 0xbe,
  0x1e, 0x01, 0x17, 0xbe, 0x50, 0xc9, 0x2f, 0xbe, 0x68, 0xc2, 0x7a, 0x3e,
  0xbc, 0x03, 0xf2, 0x3d, 0x38, 0xc7, 0x0e, 0x3e, 0x28, 0x29, 0x12, 0xbd,
  0x13, 0x9b, 0xa5, 0x3d, 0xd8, 0xbe, 0x25, 0xbe, 0x68, 0x99, 0xc5, 0xbd,
  0x0d, 0xcd, 0x65, 0x3e, 0x2b, 0x75, 0x45, 0xbc, 0x7c, 0xb3, 0x3d, 0x3d,
  0x9c, 0xea, 0xa3, 0xbd, 0x3a, 0x0c, 0x0e, 0xbe, 0xc0, 0x53, 0xb8, 0xbe,
  0x94, 0xf5, 0x8a, 0xbe, 0x96, 0xd0, 0x99, 0x3d, 0x26, 0xcb, 0x46, 0x3e,
  0xb0, 0x0f, 0xbf, 0x3d, 0x39, 0x35, 0xec, 0x3d, 0x87, 0xf5, 0x17, 0x3e,
  0x2e, 0xe1, 0xcd, 0xbe, 0x7a, 0x5b, 0xdc, 0xbc, 0x2a, 0xcd, 0x28, 0xbe,
  0x4a, 0x6f, 0x28, 0xbe, 0x8b, 0x0e, 0x65, 0x3e, 0x09, 0x31, 0xc6, 0xbb,
  0x52, 0x3f, 0xa7, 0xbe, 0x20, 0x21, 0x4c, 0xbe, 0xda, 0x4d, 0x1e, 0x3d,
  0x94, 0x91, 0xa0, 0xbb, 0x25, 0x5f, 0xb0, 0xbd, 0xf8, 0x75, 0x93, 0xbe,
  0xbf, 0xaa, 0xd8, 0x3c, 0x66, 0x30, 0x60, 0x3e, 0x9a, 0xb8, 0x4f, 0x3e,
  0x1f, 0x6a, 0xca, 0x3d, 0xe3, 0xed, 0x3e, 0xbe, 0xec, 0x8d, 0x54, 0x3c,
  0x43, 0xca, 0x21, 0xbe, 0x91, 0xd9, 0xb5, 0xbd, 0x09, 0x58, 0x06, 0x3e,
  0x3c, 0xd6, 0xd5, 0xbd, 0x7d, 0xc0, 0x58, 0xbe, 0x5c, 0x40, 0xbf, 0xbe,
  0x06, 0x1b, 0x6d, 0x3e, 0x6c, 0x82, 0x8a, 0x3e, 0xe6, 0xbf, 0x84, 0xbd,
  0x8c, 0xb4, 0x62, 0xbd, 0x70, 0x16, 0xbe, 0x3d, 0x6f, 0x96, 0x3a, 0x3e,
  0x7e, 0x0d, 0xc0, 0x3d, 0x99, 0x1b, 0x2e, 0xbc, 0x3f, 0xe7, 0xb8, 0xbe,
  0xd8, 0x8a, 0xa1, 0x3d, 0xc5, 0xd3, 0x5d, 0xbd, 0x29, 0x04, 0xbe, 0x3d,
  0x28, 0xde, 0x64, 0xbe, 0x9a, 0x26, 0xfb, 0xbc, 0x2c, 0xb3, 0xaf, 0xbd,
  0x46, 0x20, 0xb2, 0x3e, 0x4b, 0x78, 0xe3, 0xbd, 0x95, 0xb8, 0xb8, 0xbd,
  0x05, 0x69, 0x01, 0xbe, 0xcb, 0x45, 0x75, 0x3e, 0x61, 0x4b, 0x7a, 0xbd,
  0x51, 0x75, 0x49, 0xbe, 0x9e, 0x6f, 0xb1, 0x3c, 0x93, 0xb3, 0x22, 0xbe,
  0x8b, 0xf9, 0xb8, 0xbd, 0x1b, 0xc8, 0x05, 0xbe, 0x57, 0x0a, 0x86, 0xbe,
  0x25, 0xc4, 0xbc, 0xbe, 0xd5, 0x04, 0x06, 0xbe, 0x87, 0x03, 0x9a, 0xbd,
  0xaf, 0xe5, 0x46, 0x3e, 0x3b, 0x33, 0x5e, 0x3e, 0xaa, 0xf8, 0x7b, 0x3d,
  0xca, 0xd9, 0x80, 0xbb, 0x3b, 0xce, 0x93, 0x3e, 0xb9, 0x54, 0x06, 0x3f,
  0x38, 0x45, 0x97, 0x3d, 0x32, 0x40, 0x33, 0x3e, 0x58, 0x9b, 0x30, 0x3d,
  0x7c, 0x5a, 0xb5, 0xbd, 0x6f, 0x32, 0x78, 0xbe, 0x2d, 0x65, 0x50, 0xbe,
  0x2c, 0x5f, 0x4b, 0xbc, 0x93, 0x11, 0xea, 0x3c, 0x5b, 0x84, 0x83, 0xbe,
  0xe8, 0x95, 0x04, 0x3d, 0x57, 0x5b, 0x47, 0x3e, 0xcc, 0x77, 0x24, 0x3f,
  0x3e, 0x39, 0xc9, 0xbc, 0x27, 0xd9, 0x91, 0x3d, 0x2d, 0x4a, 0x1f, 0x3f,
  0xaf, 0x94, 0x55, 0x3f, 0xe2, 0x87, 0x0a, 0x3e, 0x28, 0x9b, 0x25, 0xbe,
  0xe1, 0x55, 0xca, 0xbd, 0x9d, 0x94, 0xbd, 0xbe, 0x05, 0x78, 0x0d, 0xbe,
  0x23, 0xb2, 0x47, 0x3e, 0x58, 0xfb, 0xd8, 0xbd, 0xc9, 0x27, 0xe3, 0x3d,
  0x1f, 0xb3, 0x9b, 0xbd, 0x70, 0x91, 0x84, 0x3d, 0xa4, 0x17, 0x87, 0x3e,
  0xcb, 0x9d, 0x23, 0x3f, 0x27, 0xe9, 0x40, 0x3d, 0xbd, 0xf9, 0xd7, 0xbc,
  0xb0, 0x75, 0xf5, 0x3e, 0xd2, 0x63, 0x36, 0x3f, 0x74, 0x28, 0x79, 0x3d,
  0xc9, 0xa3, 0x31, 0xbe, 0x5b, 0x87, 0x83, 0xbe, 0x61, 0x4c, 0x4f, 0xbe,
  0x5e, 0x2f, 0xe6, 0x3d, 0x6e, 0xed, 0x11, 0x3f, 0xcc, 0x15, 0x2e, 0xbe,
  0xb8, 0x4f, 0x53, 0x3d, 0xb1, 0x9b, 0x74, 0xbe, 0x28, 0xbe, 0xb0, 0x3d,
  0x31, 0x48, 0xda, 0x3e, 0x0b, 0x0e, 0x2d, 0x3f, 0x73, 0x96, 0x0a, 0xbe,
  0x7b, 0x7d, 0xed, 0xbd, 0x54, 0x7f, 0x7d, 0x3d, 0xdb, 0xc5, 0x66, 0x3f,
  0xa0, 0xea, 0xe9, 0xbb, 0x79, 0x54, 0x9d, 0xbe, 0xda, 0x78, 0xe4, 0xbd,
  0x8c, 0xd2, 0xc2, 0x3c, 0xce, 0xbd, 0xd9, 0x3c, 0x19, 0x60, 0x25, 0xbe,
  0xe4, 0x58, 0x12, 0xbe, 0x18, 0x7c, 0xe9, 0xbd, 0x5d, 0x7a, 0xa9, 0x3c,
  0x45, 0xb9, 0x25, 0xbd, 0x54, 0xc1, 0xae, 0x3e, 0xa2, 0x08, 0x93, 0x3e,
  0xd4, 0x6c, 0x49, 0xbe, 0x43, 0xd4, 0xf0, 0x3d, 0x93, 0x06, 0x09, 0xb9,
  0x3a, 0x05, 0x1d, 0x3f, 0x26, 0x90, 0x7d, 0xbc, 0xdc, 0x17, 0x0d, 0xbe,
  0x17, 0xf5, 0x2f, 0xba, 0x08, 0x19, 0xce, 0xbe, 0x57, 0x16, 0x70, 0x3e,
  0x4b, 0x51, 0xa2, 0x3a, 0x63, 0x65, 0xaa, 0xbe, 0x76, 0x51, 0x0f, 0xbe,
  0xf4, 0x6e, 0x4f, 0xbe, 0xd9, 0x31, 0x08, 0xbe, 0x3e, 0x5e, 0x0d, 0x3e,
  0x13, 0xd1, 0xcc, 0x3e, 0xed, 0xda, 0x74, 0xbd, 0x49, 0xab, 0x8f, 0xbe,
  0x59, 0x13, 0xf9, 0x3d, 0xa2, 0x40, 0xec, 0x3e, 0x99, 0x9f, 0x8a, 0x3d,
  0x08, 0x72, 0x9e, 0xbe, 0x9a, 0xd0, 0xff, 0xbd, 0xa0, 0x68, 0x2a, 0xbd,
  0xb5, 0x3c, 0x08, 0xbe, 0x6b, 0x01, 0xc7, 0x39, 0xcf, 0x05, 0x91, 0xbe,
  0xc5, 0xf0, 0xac, 0xbd, 0xf7, 0x86, 0x5a, 0xbe, 0xff, 0x3c, 0x9e, 0x3d,
  0x83, 0x22, 0x1e, 0xbe, 0xe0, 0xfb, 0x55, 0xbd, 0x9a, 0x15, 0xbe, 0x3e,
  0x20, 0x42, 0x62, 0x3e, 0xee, 0x12, 0x61, 0x3e, 0x8b, 0x14, 0x4a, 0x3e,
  0xb2, 0xfe, 0xde, 0x3d, 0xca, 0xcf, 0xe1, 0x3d, 0x42, 0xd1, 0x78, 0x3c,
  0xa5, 0xa6, 0x0a, 0xbb, 0xa7, 0x4c, 0x98, 0xbb, 0x5a, 0x42, 0x9b, 0x3e,
  0xd8, 0x2b, 0x3a, 0x3d, 0x38, 0x7a, 0x72, 0xbd, 0x2f, 0x90, 0x0a, 0x3e,
  0x27, 0x85, 0x7c, 0x3e, 0x3a, 0xbf, 0xfc, 0xbd, 0x07, 0xf3, 0x3e, 0xbd,
  0x3a, 0x51, 0x30, 0x3c, 0xee, 0xd9, 0x27, 0xbd, 0xf2, 0x74, 0x61, 0xbe,
  0x8c, 0x41, 0xcb, 0x3e, 0x81, 0x6b, 0x56, 0x3e, 0x99, 0x12, 0xf5, 0x3c,
  0xb1, 0xd4, 0x37, 0xbd, 0xa5, 0xca, 0xa6, 0xbd, 0x1a, 0x42, 0x6d, 0x3d,
  0x4e, 0x37, 0x2f, 0x3e, 0x4d, 0x4b, 0x2d, 0xbd, 0x8d, 0xcd, 0x97, 0x3d,
  0x62, 0xe2, 0x4d, 0xbe, 0x94, 0x74, 0x80, 0x3e, 0x57, 0x5c, 0x10, 0xbd,
  0x02, 0xca, 0x0b, 0x3e, 0x5a, 0x90, 0xbc, 0xbe, 0xe0, 0x11, 0x45, 0xbc,
  0xdb, 0x47, 0x1e, 0xbe, 0x76, 0x59, 0x24, 0x3e, 0xb5, 0x8e, 0x93, 0x3c,
  0xe5, 0xea, 0x02, 0xbf, 0x2e, 0x0f, 0x05, 0xbe, 0xc6, 0xe2, 0x5a, 0xbe,
  0x87, 0xe9, 0x6c, 0x3b, 0x71, 0xd7, 0x4b, 0x3e, 0xae, 0x04, 0x03, 0x3d,
  0xc1, 0x74, 0xdd, 0xbe, 0x62, 0x43, 0x2a, 0xbe, 0xd1, 0x27, 0x36, 0xbe,
  0x56, 0x96, 0x01, 0x3e, 0xa2, 0x35, 0x62, 0x3e, 0x95, 0xcf, 0xc2, 0xbd,
  0xa0, 0x25, 0x3a, 0x3b, 0x89, 0x82, 0x82, 0xbd, 0xb4, 0xdc, 0xa4, 0x3e,
  0x47, 0x0e, 0x58, 0x3d, 0x10, 0x13, 0x89, 0xbe, 0x9c, 0x42, 0x2c, 0xbe,
  0x7e, 0x11, 0x83, 0xbe, 0x13, 0x82, 0x26, 0xbe, 0xa2, 0x94, 0xb1, 0x3d,
  0x09, 0xf0, 0x89, 0xbd, 0xea, 0xd5, 0x6f, 0xbe, 0x1b, 0xcb, 0x77, 0xbe,
  0xfc, 0xcb, 0x5b, 0x3d, 0xfb, 0x24, 0xb4, 0xbe, 0xc8, 0x30, 0x1c, 0x3c,
  0xa2, 0x86, 0xf9, 0xba, 0xeb, 0x23, 0x03, 0xbd, 0x2d, 0xcb, 0x32, 0x3e,
  0x7c, 0x3c, 0xfc, 0xbc, 0xd9, 0xbf, 0x2a, 0x3e, 0xfb, 0x0d, 0xa9, 0xbe,
  0xa3, 0x5b, 0xdb, 0xbc, 0x2b, 0x71, 0x29, 0xbe, 0xd8, 0x8e, 0xc7, 0xbe,
  0x52, 0x08, 0x58, 0x3d, 0x0f, 0xa7, 0x31, 0xbc, 0x7b, 0x89, 0x51, 0x3d,
  0xcb, 0xa9, 0xa2, 0xbe, 0x85, 0xde, 0x55, 0xbe, 0x75, 0xdf, 0xff, 0xbd,
  0x04, 0x34, 0x76, 0xbe, 0x46, 0x95, 0x36, 0x3e, 0x43, 0xa3, 0x3a, 0x3e,
  0xb9, 0xc2, 0xb2, 0x3d, 0x70, 0x25, 0x69, 0x3e, 0xee, 0x97, 0x91, 0x3d,
  0x5a, 0x35, 0x4f, 0x3d, 0x22, 0x4b, 0xdd, 0xbd, 0x96, 0x80, 0x80, 0xbc,
  0x3f, 0x43, 0x46, 0xbe, 0x51, 0xb7, 0x57, 0x3e, 0x08, 0x33, 0x3e, 0xbc,
  0x3b, 0x31, 0xf1, 0x3c, 0x1b, 0x14, 0x4f, 0xbe, 0x45, 0x84, 0x36, 0xbc,
  0x8b, 0x3f, 0x90, 0xbe, 0x72, 0x53, 0x22, 0x3c, 0xfb, 0x3b, 0x1b, 0x3e,
  0xf7, 0xe1, 0xac, 0x3c, 0x43, 0x00, 0xf0, 0x3d, 0xd3, 0xf5, 0x63, 0x3e,
  0x64, 0x23, 0x80, 0x3e, 0x4a, 0x59, 0x48, 0xbe, 0x70, 0x91, 0x99, 0xbd,
  0xf0, 0xae, 0xb5, 0xbd, 0x0e, 0x54, 0x81, 0x3d, 0x04, 0xf7, 0xde, 0x3d,
  0x49, 0x1d, 0x7b, 0xbe, 0x2a, 0x38, 0x0e, 0x3e, 0x89, 0x46, 0xe2, 0x3d,
  0xc8, 0xff, 0x2a, 0x3e, 0x05, 0x20, 0x8e, 0xbc, 0x4a, 0x9b, 0x70, 0xbc,
  0x09, 0x17, 0xbf, 0xbd, 0xee, 0x2b, 0x30, 0xbe, 0x1f, 0xdb, 0xbb, 0xbc,
  0x49, 0x06, 0x0f, 0xbe, 0x72, 0xd6, 0xca, 0x3d, 0xa0, 0x9c, 0xc6, 0x3d,
  0x1a, 0xc0, 0x2d, 0xbe, 0x7f, 0x7d, 0x0c, 0xbe, 0xc3, 0xe5, 0x04, 0xbe,
  0x9c, 0x83, 0x3f, 0xbe, 0xdb, 0x65, 0x41, 0xbe, 0x88, 0xf6, 0x4f, 0xbd,
  0x4d, 0x27, 0x8f, 0x3e, 0xbf, 0xc7, 0x13, 0xbe, 0x66, 0x8a, 0xab, 0xbd,
  0xff, 0xea, 0xfc, 0xbd, 0xd5, 0x95, 0x3d, 0xbe, 0xc5, 0x44, 0x92, 0x3b,
  0xb6, 0x4d, 0x43, 0xbe, 0x0e, 0x83, 0x76, 0xbe, 0xf1, 0x86, 0x53, 0x3d,
  0x8b, 0xcd, 0xf1, 0xbc, 0x57, 0xa4, 0xee, 0x3d, 0x5f, 0x80, 0x59, 0x3e,
  0xf0, 0xa9, 0x90, 0xbe, 0x27, 0x21, 0xdc, 0xbd, 0x67, 0xdf, 0x37, 0xbe,
  0x50, 0xff, 0x64, 0x3d, 0xd3, 0xe0, 0x99, 0x3e, 0x43, 0x4c, 0x4f, 0xbd,
  0x57, 0xf9, 0xad, 0xbd, 0xf0, 0x73, 0xf8, 0x3d, 0xf3, 0x03, 0x0e, 0xbe,
  0xf9, 0x2b, 0x03, 0xbc, 0x9c, 0x62, 0xc2, 0xbd, 0x29, 0x0d, 0xaf, 0xbc,
  0x95, 0x93, 0x1a, 0xbe, 0x4c, 0x39, 0x8b, 0x3d, 0x2b, 0x9e, 0x1d, 0x3e,
  0x53, 0xd2, 0x05, 0x3e, 0xda, 0x0c, 0x43, 0xbd, 0x73, 0x6f, 0x05, 0x3e,
  0xe9, 0x73, 0x1e, 0xbe, 0x45, 0x29, 0xb5, 0x3d, 0x48, 0xb5, 0xd3, 0x3d,
  0x3f, 0x86, 0x2e, 0xbe, 0xf1, 0x77, 0x7d, 0xbe, 0x19, 0x05, 0x00, 0xbe,
  0x07, 0xb3, 0xbe, 0xbd, 0x1e, 0x3c, 0xb7, 0x3c, 0x6c, 0x59, 0xf4, 0x3c,
  0x36, 0x33, 0x17, 0x3e, 0xa3, 0x8e, 0x70, 0xbe, 0xbb, 0x69, 0xd8, 0x3d,
  0x86, 0x7c, 0xd3, 0x3d, 0xc4, 0x0d, 0x21, 0x3e, 0x7b, 0x27, 0x0e, 0xbe,
  0x2d, 0x55, 0x1a, 0xbe, 0x5c, 0x5d, 0xd8, 0xbc, 0x39, 0x68, 0x62, 0x3d,
  0x1f, 0x48, 0x41, 0xbb, 0x4a, 0x0f, 0x1c, 0x3d, 0x81, 0x2b, 0xb3, 0xbd,
  0xd2, 0x5c, 0xc0, 0x3d, 0xcf, 0xc7, 0xd6, 0xbc, 0x8a, 0xfb, 0xdf, 0xbd,
  0xc1, 0x2c, 0x88, 0xbc, 0x37, 0x34, 0xbd, 0x3a, 0x37, 0xc0, 0x13, 0x3e,
  0x5a, 0x6b, 0x4f, 0x3d, 0xac, 0xdd, 0x8c, 0xbb, 0x4a, 0x83, 0x3a, 0x3d,
  0x42, 0x7a, 0xb0, 0xbd, 0x45, 0xc8, 0x58, 0x3d, 0x9d, 0x42, 0x3d, 0x3c,
  0x88, 0x52, 0xbe, 0xbe, 0x28, 0x29, 0xbd, 0xbe, 0xaf, 0xbb, 0x0b, 0xbd,
  0x49, 0x9d, 0x2c, 0x3c, 0xe6, 0x32, 0x95, 0x3c, 0x9e, 0xfd, 0x37, 0x3e,
  0x73, 0x7a, 0x44, 0xbe, 0x82, 0xce, 0x57, 0x3d, 0x64, 0x94, 0xb7, 0xbd,
  0x34, 0x08, 0x01, 0xbe, 0x20, 0xdf, 0x9c, 0x3c, 0x58, 0x77, 0x98, 0xbe,
  0xc6, 0xf3, 0xac, 0xbe, 0xb6, 0x67, 0x14, 0x3e, 0x16, 0x1a, 0xe9, 0x3d,
  0x1d, 0x0d, 0x03, 0xbb, 0xcc, 0x57, 0x95, 0xbe, 0x83, 0xf2, 0x88, 0xbe,
  0xb1, 0xc0, 0x83, 0xbd, 0x78, 0x21, 0x85, 0x3e, 0x4f, 0x04, 0x24, 0xbc,
  0x6a, 0x9d, 0x5d, 0x3d, 0xab, 0x79, 0x9a, 0x3d, 0x3b, 0x8a, 0x3f, 0xbe,
  0x59, 0xac, 0x1d, 0x3e, 0x20, 0x35, 0x80, 0x3d, 0x48, 0x94, 0xb5, 0x3d,
  0x94, 0x72, 0x0c, 0xbe, 0x21, 0x5a, 0xb5, 0xbd, 0x5b, 0x73, 0x06, 0xbf,
  0xfa, 0x21, 0x3f, 0x3d, 0x2d, 0x47, 0x32, 0xbd, 0x43, 0x97, 0x80, 0xbd,
  0xf3, 0x91, 0x1d, 0xbd, 0xd9, 0xb7, 0xf4, 0xbd, 0x7b, 0x86, 0x66, 0xbe,
  0xba, 0x56, 0x5f, 0x3c, 0x55, 0x3c, 0x4d, 0x3e, 0xc4, 0xc9, 0x1a, 0x3e,
  0x35, 0x7b, 0x98, 0xbc, 0xae, 0xfa, 0x49, 0x3f, 0x2a, 0x46, 0x2c, 0x3e,
  0x0d, 0x7e, 0x39, 0x3d, 0x95, 0xb3, 0x85, 0xbd, 0x4a, 0x3f, 0x84, 0x3d,
  0x9a, 0xd5, 0xb7, 0xbd, 0xe9, 0x87, 0x82, 0x3e, 0x03, 0x54, 0x40, 0xbb,
  0x0c, 0xd1, 0x71, 0x3d, 0xb6, 0x16, 0x6a, 0x3e, 0x40, 0x4a, 0x66, 0x3e,
  0xb5, 0x64, 0x90, 0xbe, 0x21, 0xce, 0x02, 0xbd, 0xc7, 0x5b, 0x3c, 0xbd,
  0x45, 0x0c, 0xa2, 0x3d, 0xa2, 0x10, 0xc5, 0xbe, 0x78, 0xfd, 0x2c, 0x3f,
  0x33, 0x52, 0x8d, 0x3e, 0x89, 0x62, 0x49, 0xbe, 0xef, 0x9b, 0xfe, 0xbd,
  0x49, 0x19, 0x18, 0xbe, 0x9c, 0x66, 0x9c, 0x3c, 0x70, 0x78, 0x24, 0x3d,
  0x2d, 0x00, 0x11, 0xbd, 0x11, 0x54, 0xaf, 0xbe, 0x5b, 0x1e, 0x44, 0x3b,
  0x2e, 0x31, 0xe0, 0x3e, 0xde, 0x16, 0x57, 0xbe, 0x5e, 0x69, 0xd8, 0xbc,
  0x5a, 0xa9, 0x82, 0xbe, 0xd5, 0x4f, 0x08, 0xbf, 0xde, 0xa4, 0x00, 0xbf,
  0x71, 0x51, 0x3b, 0x3e, 0x85, 0xff, 0xea, 0x3d, 0x1b, 0xbd, 0x28, 0xbe,
  0xb3, 0xa2, 0xda, 0xbe, 0xdb, 0x93, 0x22, 0xbe, 0x76, 0xd9, 0x4d, 0xbe,
  0x5a, 0x78, 0x3a, 0xbe, 0x5f, 0x93, 0xe0, 0x3c, 0x28, 0x0d, 0xce, 0xbe,
  0x70, 0xc4, 0x90, 0x3d, 0xd7, 0xee, 0x80, 0x3c, 0x07, 0x87, 0x29, 0xbe,
  0x23, 0xa7, 0xf0, 0xbe, 0x05, 0xc7, 0xe4, 0xba, 0xed, 0x98, 0xbd, 0xbe,
  0x37, 0x14, 0x45, 0xbd, 0x06, 0x6b, 0x89, 0xbf, 0xab, 0x9c, 0xdf, 0x3e,
  0x9e, 0x26, 0xb3, 0xbe, 0xfc, 0x0c, 0xc7, 0xbe, 0xcb, 0x7b, 0x4a, 0xbe,
  0x44, 0x71, 0x81, 0xbe, 0xc4, 0xc1, 0x97, 0xbe, 0xa2, 0x4b, 0x4a, 0x3d,
  0xa1, 0x82, 0xa5, 0xbe, 0x84, 0x1f, 0xb5, 0xbc, 0x56, 0x26, 0x63, 0xbe,
  0xa4, 0xa9, 0x36, 0xbe, 0x60, 0xae, 0xa4, 0xbe, 0x1a, 0xff, 0x93, 0x3e,
  0x44, 0x90, 0x95, 0x3e, 0x95, 0x8d, 0x94, 0x3e, 0xf9, 0xb5, 0xe1, 0xbe,
  0x6d, 0xb4, 0x28, 0x3e, 0x36, 0xac, 0x03, 0xbd, 0x2f, 0x8f, 0xd1, 0xbe,
  0xde, 0xd0, 0x6a, 0xbe, 0x9b, 0x80, 0x89, 0xbe, 0x29, 0x6c, 0xe1, 0x3e,
  0xb5, 0xc1, 0x04, 0x3d, 0x99, 0x13, 0xba, 0x3c, 0xbc, 0x64, 0x32, 0xbd,
  0x7e, 0x20, 0x1e, 0x3d, 0xba, 0xb2, 0x78, 0xbe, 0x30, 0x00, 0x95, 0xbe,
  0xf5, 0x8c, 0xa0, 0x3e, 0x45, 0xa9, 0x37, 0x3e, 0x08, 0x3f, 0xad, 0x3d,
  0x86, 0x73, 0x1b, 0x3f, 0xfe, 0xa9, 0x01, 0x3c, 0x76, 0xf2, 0x2b, 0x3d,
  0x4a, 0x94, 0x20, 0xbe, 0x07, 0x08, 0xd8, 0xbd, 0xfb, 0x9d, 0x38, 0xbe,
  0x2e, 0x6a, 0xfb, 0x3e, 0x2b, 0x72, 0x90, 0xbb, 0xb4, 0x27, 0xc6, 0xbd,
  0xbb, 0xbf, 0xec, 0xbc, 0xe5, 0x05, 0x66, 0x3e, 0x24, 0xc1, 0xdb, 0xbd,
  0xa6, 0xfb, 0x12, 0xbd, 0xf9, 0x3c, 0xa1, 0x3c, 0x1f, 0x65, 0xd0, 0x3d,
  0xfd, 0x8c, 0x7a, 0x3d, 0x1e, 0x76, 0x85, 0x3e, 0xc7, 0xfd, 0x35, 0x3e,
  0x8c, 0x4a, 0xc1, 0x3d, 0x06, 0xcc, 0x03, 0xbe, 0x7c, 0xde, 0x2a, 0xbc,
  0xa4, 0x50, 0xb0, 0xbc, 0x6b, 0x1e, 0x50, 0x3d, 0x9d, 0x60, 0x2f, 0x3c,
  0x5a, 0x21, 0xd4, 0xba, 0xc6, 0xf0, 0x5a, 0xbc, 0x1d, 0xa3, 0x17, 0x3e,
  0x06, 0xde, 0x69, 0x3a, 0x49, 0x27, 0xc3, 0x3e, 0x5e, 0x51, 0x6b, 0xbe,
  0x4e, 0x29, 0x20, 0xbd, 0x30, 0xc5, 0x86, 0xbe, 0x1c, 0x79, 0xe5, 0xbd,
  0x70, 0xe6, 0x8e, 0x3c, 0x23, 0xc3, 0x67, 0xbe, 0xd7, 0xae, 0xad, 0x3d,
  0x4f, 0xea, 0x00, 0x3e, 0x3c, 0xe2, 0x55, 0xbc, 0x48, 0xb0, 0x85, 0xbe,
  0x57, 0xff, 0xb8, 0xbe, 0x5f, 0xc4, 0x2f, 0x3d, 0x19, 0x8f, 0x6d, 0xbe,
  0x8e, 0xa9, 0xad, 0xbd, 0xf4, 0x03, 0xa5, 0x3e, 0x82, 0x5b, 0x86, 0x3e,
  0x87, 0x9a, 0x15, 0xbd, 0xa5, 0xd3, 0xb0, 0xbd, 0xca, 0xcf, 0xb0, 0x3e,
  0x83, 0x6f, 0xc0, 0x3e, 0x38, 0x5c, 0x2e, 0x3e, 0xe9, 0x56, 0x5d, 0x3d,
  0x7c, 0xb3, 0x44, 0xbc, 0xc7, 0x0a, 0xc5, 0xbd, 0x42, 0x16, 0x05, 0x3e,
  0xca, 0xce, 0xdf, 0x3d, 0x2d, 0x55, 0x64, 0xbe, 0xd1, 0xe3, 0x09, 0x3e,
  0xcb, 0x7c, 0x42, 0xbe, 0x9c, 0x05, 0x68, 0xbd, 0x38, 0xbc, 0x80, 0x3e,
  0x06, 0x78, 0x0c, 0x3f, 0xde, 0x2a, 0x2d, 0x3e, 0xe0, 0x33, 0x26, 0x3e,
  0x57, 0xef, 0x92, 0x3e, 0xde, 0xbd, 0x97, 0x3f, 0xe5, 0x9d, 0xc9, 0xbd,
  0x34, 0x66, 0x8e, 0x3e, 0xf5, 0x20, 0xdd, 0xbd, 0x85, 0x09, 0x7f, 0x3b,
  0x82, 0x44, 0xf5, 0xbd, 0x02, 0x6d, 0x0a, 0x3e, 0xa2, 0x83, 0x16, 0xbe,
  0x57, 0x84, 0xac, 0x3e, 0xfc, 0x57, 0x20, 0xbe, 0x0b, 0xbf, 0xac, 0xbb,
  0xb4, 0x1a, 0x07, 0xbd, 0x67, 0x40, 0xa8, 0x3e, 0x1b, 0xfd, 0x0b, 0x3d,
  0xe4, 0x2d, 0x98, 0x3d, 0xaa, 0x6a, 0xd9, 0x3d, 0xbe, 0xaf, 0xd8, 0x3f,
  0x80, 0x10, 0x60, 0xbd, 0x1c, 0x8f, 0x59, 0x3e, 0x63, 0x82, 0x01, 0xbe,
  0x2e, 0xc8, 0x8a, 0xbc, 0x1b, 0x66, 0x42, 0x3d, 0xa1, 0xa3, 0x60, 0x3d,
  0xb9, 0xfc, 0x12, 0x3c, 0x40, 0x95, 0x1b, 0x3e, 0xef, 0x15, 0x99, 0x3d,
  0xa7, 0x1c, 0x13, 0x3e, 0x93, 0xa0, 0xd3, 0x3e, 0xc7, 0x5b, 0x41, 0x3e,
  0x4b, 0x5c, 0xc8, 0xbd, 0x33, 0x71, 0x3e, 0xbe, 0x46, 0x80, 0x9f, 0x3d,
  0xb7, 0xa5, 0xcb, 0x3f, 0xf2, 0xf1, 0xc9, 0xbc, 0x65, 0x8b, 0x54, 0xbe,
  0xf5, 0x5c, 0xa9, 0xbc, 0x6e, 0x22, 0x16, 0xbe, 0x23, 0x33, 0x49, 0x3d,
  0x16, 0x6b, 0x27, 0xbe, 0x1d, 0x3f, 0x4d, 0x3d, 0xa2, 0x83, 0x39, 0xbe,
  0xd5, 0xeb, 0x23, 0xbe, 0x0d, 0x34, 0xc3, 0xbd, 0x96, 0xf8, 0x92, 0x3e,
  0x9a, 0x10, 0xcf, 0x3d, 0x4c, 0x11, 0x0f, 0xbd, 0x3b, 0x1d, 0x06, 0xbd,
  0x15, 0xc3, 0xf3, 0x3d, 0x9b, 0xb8, 0x25, 0x3f, 0x8b, 0x13, 0xcf, 0x3d,
  0x3d, 0xf0, 0xc6, 0xbd, 0xb7, 0x7f, 0x95, 0x3d, 0xfc, 0xd5, 0x5b, 0xbe,
  0x85, 0xb6, 0x2b, 0x3d, 0x5a, 0x47, 0x9f, 0xbe, 0x4e, 0x3a, 0xa3, 0x3d,
  0xf2, 0x99, 0x05, 0x3c, 0x08, 0x4f, 0x53, 0xbe, 0x92, 0x8c, 0x61, 0xbd,
  0xd9, 0x2b, 0x9f, 0x3e, 0x06, 0x54, 0x25, 0xbe, 0x16, 0x24, 0xfe, 0xbd,
  0x35, 0x0c, 0xa8, 0xbd, 0x33, 0xc3, 0xfa, 0xbd, 0x25, 0xf8, 0x21, 0x3f,
  0x99, 0x73, 0xdb, 0xbd, 0xf1, 0x73, 0x94, 0xbe, 0x2c, 0x5d, 0x23, 0xb9,
  0xfd, 0xec, 0x10, 0xbd, 0xf5, 0xe5, 0x8d, 0xbd, 0x35, 0xf9, 0x56, 0xbd,
  0xa1, 0xf6, 0xf6, 0x3b, 0x5c, 0xcd, 0x28, 0xbe, 0x2d, 0x81, 0x70, 0xbe,
  0x91, 0xf8, 0x45, 0x3d, 0xb0, 0xfe, 0xc8, 0xbd, 0xcb, 0x88, 0xa5, 0x3c,
  0xb7, 0x60, 0x7e, 0x3d, 0x0c, 0x83, 0x72, 0xbe, 0x34, 0x8e, 0xf2, 0x3d,
  0x10, 0x02, 0x11, 0x3d, 0x47, 0x90, 0x40, 0xbe, 0x4a, 0xbf, 0x3d, 0xbe,
  0x91, 0xd1, 0xea, 0xbd, 0x2f, 0xe7, 0xa4, 0x3c, 0xa6, 0x39, 0xe0, 0xbd,
  0xf2, 0x93, 0x24, 0xbe, 0xcf, 0xde, 0x08, 0xbe, 0xbd, 0x93, 0x3b, 0xbe,
  0x35, 0xc2, 0x4c, 0x3e, 0xaa, 0xbf, 0x17, 0xbe, 0xab, 0x71, 0x41, 0x3d,
  0x7d, 0xe9, 0x81, 0xbd, 0x6d, 0xc6, 0x5d, 0xbe, 0x9f, 0xcb, 0x02, 0x3e,
  0x33, 0x35, 0xd9, 0x3c, 0x67, 0xe1, 0x2e, 0xbe, 0x6c, 0x3d, 0x2f, 0x3d,
  0x91, 0xb5, 0x4d, 0xbe, 0xae, 0xc7, 0x49, 0x3c, 0x16, 0x1b, 0x1c, 0x3b,
  0x9a, 0x0b, 0x4b, 0xbe, 0x24, 0x71, 0x14, 0xbe, 0xaa, 0x96, 0xa3, 0xbd,
  0xec, 0xbe, 0x36, 0xbe, 0x3e, 0x92, 0x69, 0xbe, 0xa3, 0x4e, 0x30, 0xbe,
  0x46, 0xa8, 0x5a, 0xbe, 0xd2, 0xa7, 0x15, 0x3e, 0x73, 0xa8, 0x38, 0x3d,
  0x88, 0x6b, 0x56, 0xbe, 0x0f, 0xd3, 0x74, 0xbe, 0x5f, 0xa0, 0x6f, 0xbe,
  0x6e, 0x4e, 0x33, 0xbe, 0x66, 0x78, 0x8b, 0xbb, 0x78, 0xa3, 0x26, 0xbe,
  0x58, 0xcf, 0xf1, 0x3d, 0x8e, 0x7f, 0xec, 0xbd, 0x89, 0xe6, 0xab, 0x3d,
  0x6c, 0xef, 0x96, 0xbd, 0xe4, 0x8f, 0x8c, 0xbd, 0x85, 0x3e, 0x8f, 0xbe,
  0xe3, 0x5f, 0xe2, 0xbd, 0xdf, 0x38, 0x3f, 0x3e, 0x3a, 0x75, 0x6f, 0x3d,
  0xa3, 0xa5, 0x19, 0x3e, 0xe0, 0x4b, 0x26, 0xbe, 0x9a, 0xa2, 0x20, 0x3d,
  0x19, 0x6e, 0x3b, 0x3e, 0x89, 0x6b, 0x2b, 0xbe, 0x0b, 0x39, 0x76, 0xbe,
  0x91, 0xa5, 0x0f, 0xbe, 0x91, 0x61, 0xbf, 0xbd, 0x31, 0x28, 0x84, 0xbc,
  0x4a, 0xdc, 0x32, 0xbe, 0x24, 0xd0, 0xd3, 0xbe, 0x4d, 0xf1, 0x02, 0x3e,
  0xe9, 0xdc, 0x02, 0xbd, 0xac, 0x05, 0xe2, 0x3d, 0xf0, 0xff, 0x27, 0x3d,
  0x71, 0x1a, 0xd2, 0x3c, 0xea, 0xee, 0x52, 0xbe, 0x1c, 0x80, 0x4b, 0xbe,
  0x7f, 0x5f, 0x6a, 0xbe, 0xd5, 0x6d, 0xbb, 0xbd, 0x29, 0x62, 0x33, 0xbe,
  0xa4, 0xf6, 0x7a, 0xbe, 0x43, 0xa5, 0x21, 0xbe, 0x2d, 0xd7, 0x33, 0xbe,
  0xdf, 0x14, 0x4f, 0xbd, 0x90, 0x1f, 0x70, 0xbc, 0xe9, 0x1f, 0x7c, 0xbe,
  0x8b, 0x0e, 0xf5, 0xbd, 0x4a, 0xe2, 0x39, 0x3d, 0x0e, 0x52, 0xca, 0xbd,
  0x92, 0x13, 0x32, 0xbe, 0x33, 0x28, 0x3c, 0xbe, 0xc3, 0x08, 0xce, 0xbd,
  0x16, 0xa8, 0x18, 0xbe, 0x6a, 0xed, 0x99, 0xbd, 0xe0, 0xfe, 0x12, 0xbe,
  0x83, 0x1e, 0x3f, 0x3e, 0xf4, 0xee, 0xe5, 0xbd, 0x7c, 0x3e, 0xc6, 0x3d,
  0x94, 0x39, 0x90, 0xbe, 0x19, 0x2a, 0x5f, 0xbe, 0x06, 0xaf, 0x8c, 0x3d,
  0x81, 0x27, 0x84, 0xbe, 0x99, 0x88, 0x7c, 0xbe, 0x3e, 0x6c, 0x62, 0xbe,
  0x94, 0xa7, 0xaf, 0xbd, 0x0a, 0xee, 0x94, 0xbd, 0xbd, 0xcb, 0x19, 0xbe,
  0x95, 0x90, 0x9d, 0xbd, 0x5b, 0xea, 0x6b, 0x3d, 0x97, 0x66, 0x32, 0xbe,
  0xdf, 0x51, 0x36, 0xbe, 0x76, 0xe7, 0x05, 0xbe, 0x32, 0xaa, 0x37, 0xbd,
  0x87, 0x97, 0x2b, 0xbe, 0xd0, 0x66, 0xb9, 0xbd, 0x6e, 0xf1, 0x70, 0x3d,
  0xe1, 0x45, 0x57, 0xbe, 0x9f, 0xf5, 0xe6, 0xbd, 0x12, 0xe2, 0x63, 0x3d,
  0x40, 0x0f, 0x7c, 0xbe, 0xb8, 0xc9, 0x05, 0x3d, 0x2b, 0xea, 0x37, 0xbe,
  0xba, 0xe6, 0xd0, 0xbd, 0xad, 0x95, 0xe0, 0x3d, 0x7a, 0xb5, 0xf1, 0xbd,
  0x8f, 0x70, 0x3f, 0x3d, 0xe3, 0xfe, 0x44, 0xbe, 0xa8, 0x33, 0x06, 0xbe,
  0x4b, 0x61, 0x03, 0xbe, 0x0d, 0x22, 0x46, 0x3c, 0x73, 0x0d, 0xb4, 0xbe,
  0xe1, 0x46, 0x69, 0xbe, 0x81, 0x89, 0xca, 0x3d, 0xdf, 0xb7, 0x5e, 0xbe,
  0xa9, 0x0a, 0xbc, 0xbe, 0xdb, 0xf5, 0x4f, 0xbe, 0x33, 0x88, 0x57, 0xbe,
  0xf2, 0xb4, 0x14, 0x3d, 0x8f, 0x31, 0xc5, 0x3c, 0xa0, 0xe8, 0xd0, 0xbd,
  0x8d, 0x87, 0x6c, 0x3d, 0x43, 0xd3, 0x3c, 0x3e, 0xa9, 0x68, 0x93, 0xbe,
  0x67, 0x5c, 0x40, 0xbe, 0x41, 0x7c, 0x3c, 0x3e, 0xc4, 0x93, 0xb6, 0xbd,
  0x1f, 0x2e, 0x1f, 0xbe, 0xf1, 0x81, 0x98, 0xbe, 0x9d, 0x68, 0xfd, 0x3c,
  0x90, 0x48, 0x5d, 0xbe, 0xf5, 0x34, 0x8d, 0xbe, 0xe1, 0x9a, 0x78, 0xbe,
  0xa8, 0x44, 0x56, 0x3d, 0xc3, 0xd2, 0x52, 0xbe, 0x69, 0x87, 0x06, 0x3e,
  0x1c, 0x48, 0xeb, 0x3d, 0x0d, 0x5d, 0xff, 0xbd, 0xf0, 0x84, 0x40, 0xbe,
  0x9c, 0x08, 0x44, 0xbe, 0x5b, 0xa7, 0x91, 0x3e, 0x0b, 0x4d, 0xf5, 0xbb,
  0x47, 0x13, 0xed, 0xbd, 0x1f, 0x95, 0xa9, 0xbe, 0xf7, 0x6b, 0x37, 0xbe,
  0xb6, 0x76, 0x08, 0x3e, 0x45, 0x93, 0x96, 0xbd, 0x31, 0x7c, 0x17, 0x3c,
  0x50, 0x7a, 0x87, 0xbe, 0xb9, 0xa6, 0x73, 0xbe, 0xdc, 0x66, 0x67, 0xbd,
  0xe4, 0xa0, 0x6a, 0x3c, 0x33, 0x9e, 0xa1, 0xbd, 0x36, 0x38, 0x02, 0x3e,
  0x90, 0x66, 0x5d, 0xbd, 0x2a, 0x59, 0x06, 0xbe, 0xca, 0x83, 0xa8, 0x3d,
  0xa8, 0x79, 0x4e, 0xbe, 0xb0, 0x8b, 0x02, 0xbe, 0xf1, 0x3b, 0xb2, 0xbe,
  0x71, 0x1d, 0x67, 0xbe, 0x6c, 0x84, 0x8b, 0xbd, 0x2f, 0x45, 0x6c, 0xbe,
  0x22, 0x02, 0x95, 0xbe, 0x77, 0xf8, 0xa9, 0xbe, 0xd2, 0x23, 0x14, 0x3e,
  0x5c, 0x7f, 0xa2, 0xbd, 0x9c, 0xb9, 0x9f, 0x3d, 0x2c, 0xcd, 0x78, 0x3d,
  0x43, 0x83, 0xe9, 0xbc, 0x23, 0xc5, 0x8d, 0x3e, 0x62, 0x91, 0xbf, 0x3c,
  0x17, 0xae, 0x7e, 0xbd, 0xd7, 0xda, 0xae, 0x3d, 0xd1, 0xc3, 0xfd, 0xbc,
  0xbe, 0xe1, 0x28, 0xbe, 0x5e, 0x3b, 0xd4, 0xbd, 0xdc, 0x3b, 0xe9, 0xbd,
  0x43, 0xf4, 0x74, 0xbe, 0x14, 0x94, 0x67, 0x3c, 0x28, 0xe8, 0xd4, 0xbd,
  0x2a, 0xed, 0x1b, 0xbe, 0xb2, 0xb3, 0x11, 0xbe, 0x1e, 0x70, 0x8c, 0x3d,
  0xff, 0x46, 0x11, 0x3e, 0x53, 0xf4, 0xea, 0x3d, 0x8c, 0x97, 0xcd, 0xbd,
  0xf3, 0x5e, 0xd8, 0x3e, 0x5f, 0x70, 0x87, 0xbd, 0x25, 0x8b, 0x6c, 0xbc,
  0x79, 0xd3, 0xe6, 0x3d, 0x32, 0x0d, 0x86, 0xbd, 0x7c, 0x31, 0x88, 0xbc,
  0xa6, 0x9e, 0x09, 0x3e, 0xbe, 0x06, 0xcb, 0xbd, 0xf7, 0x22, 0xdd, 0x3c,
  0xd5, 0x94, 0x5e, 0x3c, 0x08, 0xad, 0x97, 0x39, 0xd9, 0xb9, 0x63, 0xbe,
  0x44, 0x80, 0x27, 0x3d, 0x5b, 0x06, 0x57, 0xbe, 0xa7, 0x14, 0x60, 0x3b,
  0xb6, 0x43, 0x9d, 0xbd, 0x04, 0xd7, 0x74, 0x3d, 0xc1, 0x1f, 0x45, 0xbe,
  0x97, 0xfe, 0x7c, 0xbe, 0x82, 0x24, 0x8e, 0xbd, 0x0a, 0xab, 0xac, 0xbd,
  0xc3, 0xde, 0x97, 0xbd, 0xbf, 0x9a, 0x9d, 0xbd, 0xdf, 0x24, 0x4a, 0xbe,
  0xe3, 0x50, 0x39, 0xbc, 0x9b, 0xc6, 0x48, 0xbd, 0x36, 0x89, 0xa6, 0x3e,
  0x1d, 0xac, 0x32, 0xbe, 0x6c, 0x96, 0xbc, 0x3e, 0x54, 0x61, 0x35, 0xbe,
  0x61, 0x53, 0xef, 0xbd, 0x88, 0x3d, 0x09, 0xbf, 0x5a, 0x97, 0x79, 0x3e,
  0x40, 0xcf, 0x91, 0xbd, 0x08, 0x8f, 0x90, 0xbe, 0xb7, 0x48, 0x71, 0xbe,
  0x45, 0x95, 0x38, 0xbe, 0xf8, 0x4a, 0x09, 0x3e, 0x1e, 0x69, 0xc1, 0xbb,
  0x5a, 0x1c, 0xb9, 0xbc, 0xe4, 0x14, 0x31, 0xbc, 0x8f, 0xb5, 0xb1, 0x3d,
  0xb3, 0x9d, 0xa5, 0xbd, 0x95, 0xca, 0x84, 0x3d, 0xc6, 0x47, 0x0a, 0x3e,
  0xba, 0xb9, 0x02, 0xbe, 0xa2, 0xc6, 0x17, 0xbe, 0xb4, 0x5a, 0x68, 0x3f,
  0x25, 0x73, 0x27, 0x3f, 0x34, 0x8a, 0x75, 0xbd, 0xb6, 0xd2, 0x97, 0xbd,
  0x5d, 0x8d, 0xb2, 0xbd, 0xa1, 0xa3, 0xbc, 0xbc, 0xdf, 0x5c, 0xcc, 0xbd,
  0x8c, 0x61, 0xbc, 0xbd, 0x03, 0x94, 0x69, 0xbe, 0x31, 0x2e, 0x6a, 0xbe,
  0xe9, 0x7c, 0x3a, 0xbe, 0x70, 0x29, 0xd7, 0xbd, 0x04, 0xe8, 0x03, 0xbe,
  0x40, 0x53, 0xfa, 0x3e, 0x64, 0xd0, 0xec, 0xbd, 0x1c, 0x93, 0x65, 0x3e,
  0x8e, 0xc3, 0x00, 0x3f, 0xd2, 0x81, 0xe9, 0x3f, 0xb7, 0xb8, 0x86, 0x3d,
  0x9a, 0x9b, 0x5c, 0xbe, 0x53, 0xe9, 0x48, 0xbd, 0x8b, 0x5b, 0xaa, 0xbd,
  0xa2, 0x53, 0x55, 0x3d, 0x51, 0x11, 0x58, 0xbc, 0x16, 0x03, 0xeb, 0xbd,
  0x6d, 0xc0, 0x65, 0x3d, 0x01, 0xb7, 0x08, 0xbe, 0x11, 0xc5, 0x70, 0xbd,
  0x48, 0x1a, 0xd1, 0x3c, 0xae, 0xb9, 0x87, 0x3e, 0x4c, 0x32, 0x1b, 0xbe,
  0x59, 0xc2, 0x6e, 0x3e, 0x6c, 0x73, 0x14, 0x3e, 0xfe, 0x9c, 0xda, 0x3f,
  0x58, 0x7a, 0x65, 0xbe, 0xa8, 0x4c, 0x19, 0xbc, 0x94, 0x1c, 0x93, 0xbd,
  0xa5, 0x82, 0x49, 0x3e, 0xd6, 0xf0, 0xa1, 0x3d, 0x3b, 0x44, 0x31, 0xbd,
  0x45, 0x3b, 0xcb, 0xbe, 0xc2, 0x26, 0x2d, 0x3e, 0x44, 0x3a, 0x95, 0xbe,
  0x35, 0x5e, 0xdf, 0x3d, 0xc9, 0xfc, 0x94, 0x3e, 0x3c, 0x41, 0xb6, 0x3e,
  0xdd, 0x4c, 0xf5, 0xbd, 0x04, 0x53, 0xb9, 0xbd, 0xf6, 0x3c, 0x7b, 0xbb,
  0xd0, 0x0b, 0xf8, 0x3f, 0x79, 0x1c, 0x66, 0xbe, 0x05, 0x78, 0x3f, 0x3c,
  0x9b, 0xb1, 0x09, 0xbe, 0xb1, 0x11, 0x0e, 0x3e, 0x7c, 0xd7, 0x68, 0x3e,
  0x34, 0xff, 0x17, 0xbd, 0x28, 0xea, 0x02, 0xbf, 0x6e, 0x01, 0x56, 0x3e,
  0x0c, 0xc5, 0xf5, 0xbd, 0x8e, 0x93, 0x64, 0x3d, 0xcf, 0x06, 0xf6, 0x3e,
  0xc6, 0xd8, 0x1b, 0x3f, 0xe5, 0x6f, 0x9c, 0x3d, 0x50, 0x74, 0x55, 0x3d,
  0x73, 0x24, 0x41, 0x3e, 0x44, 0x4f, 0xb4, 0x3e, 0x3b, 0x9e, 0x91, 0x3d,
  0xf2, 0xac, 0x13, 0x3e, 0x20, 0x2e, 0x45, 0xbe, 0xf7, 0xc3, 0x81, 0xbe,
  0x8a, 0x8f, 0x44, 0x3e, 0xd6, 0xee, 0x94, 0xbe, 0x82, 0xfe, 0xc4, 0xbe,
  0x2c, 0x5b, 0x53, 0x3d, 0x42, 0x04, 0xd1, 0xbe, 0x7c, 0xa6, 0x04, 0xbe,
  0x5d, 0xf1, 0x95, 0x3e, 0xcc, 0xcd, 0xab, 0x3d, 0x3b, 0x19, 0x2b, 0xbe,
  0xd3, 0x3c, 0x34, 0xbe, 0x17, 0x4d, 0xb6, 0xbd, 0x60, 0x53, 0x22, 0x3e,
  0xb7, 0x99, 0x83, 0xbe, 0xb3, 0x2c, 0xa3, 0xbe, 0x51, 0xe9, 0x91, 0x3d,
  0xd5, 0x67, 0x6f, 0x3c, 0x60, 0xcd, 0x16, 0xbe, 0xae, 0x17, 0x72, 0xbe,
  0xf8, 0x63, 0x15, 0xbe, 0x89, 0x85, 0xd7, 0x3d, 0x81, 0x3b, 0xab, 0xbe,
  0x57, 0x06, 0x32, 0xbe, 0x24, 0xc0, 0xa6, 0xbb, 0xd1, 0xf6, 0x83, 0x3e,
  0x7c, 0x44, 0x3a, 0xbe, 0xd2, 0x04, 0x2e, 0xbe, 0xd6, 0x6e, 0x14, 0x3d,
  0x04, 0xed, 0x20, 0x3f, 0xf9, 0x0f, 0x89, 0x3d, 0x57, 0x22, 0x43, 0x3d,
  0x70, 0xb4, 0xd7, 0xbe, 0x20, 0x7d, 0x09, 0xbf, 0x87, 0x14, 0x6e, 0xbd,
  0x0c, 0x2a, 0x48, 0xbb, 0x80, 0xd1, 0xc5, 0xbd, 0x15, 0xb4, 0x92, 0xbd,
  0x8c, 0xa2, 0x14, 0x3e, 0x9c, 0x55, 0xdd, 0xbd, 0x61, 0xe8, 0xfe, 0xbc,
  0xe8, 0x76, 0x98, 0xbd, 0x30, 0xae, 0x75, 0x3d, 0xce, 0xcb, 0x28, 0xbe,
  0x2e, 0x97, 0xa8, 0xbd, 0x0b, 0xbf, 0xaa, 0x3e, 0x1f, 0x14, 0xbb, 0xbd,
  0x9e, 0xe9, 0x16, 0xbe, 0x21, 0x60, 0xb8, 0x3d, 0x48, 0xe0, 0x57, 0x3e,
  0x17, 0xc2, 0x17, 0xbe, 0xd6, 0xf2, 0x53, 0xbe, 0x24, 0x2e, 0xcf, 0xbd,
  0x3c, 0x74, 0x24, 0x3e, 0x24, 0xc7, 0x48, 0x3e, 0x72, 0x36, 0x34, 0xbe,
  0xd7, 0xb6, 0x46, 0xbd, 0x3e, 0x01, 0x41, 0x3e, 0x41, 0xa5, 0xbc, 0x3d,
  0xcb, 0x36, 0xeb, 0xbd, 0x8c, 0x02, 0x93, 0xbc, 0x89, 0xf7, 0x5d, 0x3e,
  0x6a, 0x6e, 0xa5, 0x3d, 0x91, 0xdb, 0xb0, 0x3c, 0x28, 0xeb, 0xa1, 0x3d,
  0x12, 0xff, 0x80, 0x3e, 0x8e, 0xf1, 0x48, 0xbd, 0x4c, 0x82, 0xa2, 0x3d,
  0x39, 0xb8, 0x23, 0xbe, 0x6a, 0xf0, 0xc6, 0x3d, 0x11, 0xaa, 0x30, 0x3e,
  0x46, 0x4b, 0x27, 0x3d, 0x41, 0x2d, 0x8b, 0xbd, 0x70, 0xfc, 0x04, 0x3d,
  0x0d, 0x40, 0x2c, 0x3e, 0xb4, 0xcd, 0x9e, 0xbe, 0xc1, 0x2f, 0x21, 0xbd,
  0x38, 0x05, 0x32, 0x3f, 0xf1, 0xc1, 0x29, 0xbe, 0xa3, 0x00, 0xc0, 0x3e,
  0xd5, 0x49, 0xa3, 0x3d, 0x49, 0x7a, 0x23, 0x3e, 0x94, 0x7c, 0x61, 0xbe,
  0x6f, 0xab, 0x3f, 0x3d, 0x1f, 0x62, 0x07, 0xbe, 0xf0, 0x5b, 0x88, 0xbb,
  0x88, 0xf0, 0xe5, 0x3d, 0x6c, 0xd0, 0xb5, 0xbd, 0xf2, 0x64, 0x5a, 0xbc,
  0x8f, 0x1f, 0x13, 0x3e, 0x5a, 0x82, 0x34, 0xbe, 0x96, 0x0b, 0x44, 0xbe,
  0x31, 0x31, 0x34, 0xbe, 0x14, 0xdb, 0xee, 0x3e, 0x60, 0x2b, 0x1e, 0xbd,
  0xc5, 0xcc, 0xdb, 0x3d, 0xe5, 0x99, 0x60, 0x3e, 0x41, 0xd9, 0x73, 0x3e,
  0xce, 0xa6, 0x17, 0xbe, 0x44, 0x02, 0x01, 0xbe, 0xe0, 0x2c, 0x4f, 0xbd,
  0xfb, 0x49, 0x01, 0xbd, 0xeb, 0x7b, 0xc4, 0x3d, 0xce, 0xc0, 0x21, 0xbd,
  0x01, 0xc2, 0xc2, 0xbd, 0xa7, 0x3c, 0x39, 0xbe, 0x1a, 0xd7, 0x80, 0x3b,
  0xb2, 0x0e, 0x93, 0xbe, 0x81, 0xa2, 0x37, 0xbe, 0x72, 0x61, 0x23, 0x3f,
  0xd2, 0x65, 0x9d, 0x3d, 0xf2, 0xea, 0x9f, 0xbd, 0x27, 0x38, 0xe3, 0xbd,
  0xb7, 0x52, 0xc1, 0xbd, 0x93, 0xab, 0xc9, 0xbc, 0x73, 0xe6, 0x4c, 0x3e,
  0xa8, 0xd1, 0x04, 0x3c, 0xad, 0x05, 0xbd, 0xbd, 0x43, 0x5b, 0xde, 0xbe,
  0x04, 0xfc, 0x9a, 0x3c, 0x12, 0x5e, 0xe1, 0x3c, 0xe6, 0xd4, 0x52, 0xbe,
  0x12, 0x71, 0x15, 0x3e, 0x2d, 0xfc, 0x7b, 0xbd, 0xf0, 0x76, 0xae, 0xbd,
  0x4c, 0xb1, 0x9b, 0x3e, 0x39, 0xff, 0x64, 0x3e, 0xb7, 0x01, 0x45, 0x3e,
  0x78, 0x68, 0x17, 0xbe, 0xda, 0x2e, 0x94, 0xbe, 0xc5, 0x45, 0x22, 0xbf,
  0xd2, 0xef, 0xe8, 0xbc, 0x7b, 0x20, 0x56, 0xbe, 0x5d, 0xfe, 0x4e, 0xbd,
  0x40, 0xec, 0x9f, 0xbd, 0x4d, 0x2a, 0xf0, 0x3d, 0x2e, 0x69, 0xb8, 0xbe,
  0xbd, 0x76, 0xf0, 0x3d, 0x63, 0x3e, 0x7d, 0x3e, 0x89, 0x73, 0x61, 0xbc,
  0xab, 0x02, 0xd7, 0x3c, 0xab, 0xe0, 0x9a, 0x3e, 0x68, 0x66, 0x8f, 0x3b,
  0x99, 0x45, 0xe2, 0xbb, 0x61, 0xe0, 0x11, 0xbe, 0x6c, 0x04, 0xea, 0xbd,
  0x7e, 0xb4, 0xac, 0xbd, 0x40, 0xfb, 0xa0, 0x3e, 0x85, 0x6c, 0x0b, 0x3c,
  0xef, 0x73, 0x38, 0x3b, 0x96, 0xbd, 0x87, 0x3d, 0x6b, 0xe7, 0x86, 0x3d,
  0xc4, 0x13, 0x5e, 0xbe, 0x64, 0x1d, 0xad, 0x3d, 0x25, 0xc6, 0x4b, 0xbe,
  0x2c, 0xc2, 0x2d, 0xbe, 0x00, 0xe1, 0xe3, 0xbd, 0x4e, 0x42, 0xea, 0x3d,
  0x19, 0xcc, 0x11, 0x3e, 0xa2, 0xcd, 0xa1, 0xbe, 0x8d, 0xaf, 0x91, 0xbd,
  0x35, 0xc3, 0xbd, 0xbd, 0x7b, 0xa2, 0xe6, 0xbc, 0x6f, 0x90, 0x07, 0x3e,
  0x88, 0xbe, 0x22, 0x3c, 0xf6, 0x64, 0xac, 0xbe, 0x1c, 0xb5, 0xfa, 0xbd,
  0xc4, 0x46, 0x4a, 0x3d, 0x11, 0x66, 0xd9, 0xbd, 0xe9, 0x5d, 0x9b, 0xbe,
  0xeb, 0x58, 0xc7, 0xbd, 0xa0, 0xf9, 0xbc, 0xbd, 0xa2, 0xf3, 0x84, 0xbe,
  0x51, 0xdf, 0x0f, 0xbf, 0xb5, 0x03, 0x88, 0x3e, 0x47, 0xbd, 0x35, 0xbe,
  0xca, 0x85, 0xdf, 0xbd, 0x31, 0xc6, 0x6e, 0xbe, 0x1d, 0x06, 0xbf, 0x3c,
  0xd4, 0x3d, 0x9d, 0x3d, 0x47, 0x7c, 0xfc, 0x3c, 0xaf, 0x81, 0xa0, 0xbe,
  0x36, 0x65, 0x4a, 0xbd, 0x71, 0xde, 0x3a, 0xbc, 0xa5, 0x86, 0x0d, 0x3e,
  0x01, 0xf6, 0x85, 0xbe, 0xa8, 0xcc, 0x1d, 0x3e, 0x66, 0x70, 0x99, 0xbd,
  0x0e, 0x91, 0x48, 0xbe, 0x0b, 0xce, 0xe3, 0xbe, 0xe3, 0x6f, 0x1c, 0x3e,
  0xb2, 0x71, 0x18, 0xbd, 0x47, 0xaf, 0x8c, 0xbd, 0x9b, 0x51, 0x88, 0xbe,
  0x15, 0x67, 0x5e, 0xbe, 0x9c, 0x9f, 0x86, 0x3d, 0x54, 0xb6, 0xd3, 0x3d,
  0x41, 0x54, 0x66, 0xbe, 0x51, 0xc8, 0xa0, 0xbd, 0x84, 0xb8, 0x94, 0x3d,
  0x2f, 0xbc, 0x25, 0x3e, 0x1a, 0xb3, 0xaa, 0xbe, 0x0a, 0x59, 0xbc, 0xbd,
  0xa1, 0xf1, 0x52, 0x3e, 0x66, 0xc9, 0x5f, 0xbd, 0xd8, 0xc1, 0xe0, 0xbe,
  0x9e, 0x33, 0x3b, 0x3e, 0xad, 0x24, 0xc9, 0xbc, 0x5d, 0x15, 0xeb, 0x3d,
  0xc9, 0xa9, 0x2c, 0xbe, 0x76, 0xea, 0xb4, 0xbe, 0x03, 0x25, 0xbb, 0x3d,
  0x7d, 0x1e, 0x80, 0x3d, 0x6a, 0x8a, 0xaa, 0xbd, 0x9c, 0x4a, 0x15, 0xbe,
  0x93, 0x9c, 0x06, 0x3e, 0x1c, 0xee, 0x44, 0xbe, 0x7a, 0x4a, 0x95, 0xbe,
  0x74, 0x61, 0x2b, 0x3e, 0x35, 0x6c, 0x64, 0x3e, 0x4b, 0x46, 0x33, 0x3d,
  0x73, 0xcb, 0xcd, 0x3d, 0x9f, 0xba, 0x2e, 0x3e, 0xbf, 0xb5, 0x13, 0x3e,
  0x43, 0xd0, 0xbc, 0xbd, 0xbc, 0x3e, 0x82, 0xbe, 0xf9, 0x9a, 0x84, 0xbe,
  0xe3, 0x05, 0xf8, 0x3e, 0xe1, 0xe8, 0x51, 0x3d, 0xae, 0x3b, 0xd9, 0xbd,
  0x39, 0xff, 0x0f, 0xbe, 0x61, 0xb9, 0x62, 0x3e, 0x26, 0xb0, 0xa5, 0xbe,
  0xfa, 0xd8, 0xf6, 0xbd, 0x56, 0xd2, 0xb1, 0x3c, 0x15, 0x1e, 0x01, 0x3e,
  0x75, 0xb9, 0x96, 0x3d, 0x5b, 0x1a, 0xbe, 0x3d, 0xc2, 0x7b, 0x63, 0xbb,
  0xd9, 0xbe, 0xae, 0x3d, 0xde, 0xe0, 0x65, 0xbd, 0x6e, 0xea, 0x4a, 0xbd,
  0x30, 0x43, 0x4f, 0xbd, 0xdd, 0xf7, 0x44, 0x3e, 0xf0, 0xcd, 0x86, 0x3c,
  0x64, 0xb5, 0xae, 0xbc, 0xcd, 0x97, 0x1b, 0x3d, 0x48, 0x53, 0x06, 0x3e,
  0xeb, 0xcf, 0x49, 0x3d, 0x62, 0xfd, 0xff, 0xff, 0x10, 0x00, 0x00, 0x00,
  0x07, 0x00, 0x00, 0x00, 0x14, 0x00, 0x00, 0x00, 0x2c, 0x00, 0x00, 0x00,
  0x02, 0x00, 0x00, 0x00, 0x10, 0x00, 0x00, 0x00, 0x70, 0x00, 0x00, 0x00,
  0x17, 0x00, 0x00, 0x00, 0x73, 0x65, 0x71, 0x75, 0x65, 0x6e, 0x74, 0x69,
  0x61, 0x6c, 0x2f, 0x64, 0x65, 0x6e, 0x73, 0x65, 0x2f, 0x4d, 0x61, 0x74,
  0x4d, 0x75, 0x6c, 0x00, 0xcc, 0xfc, 0xff, 0xff, 0xd6, 0xfd, 0xff, 0xff,
  0x04, 0x00, 0x00, 0x00, 0x08, 0x00, 0x00, 0x00, 0xff, 0xff, 0xff, 0xff,
  0x70, 0x00, 0x00, 0x00, 0x00, 0x00, 0x0e, 0x00, 0x18, 0x00, 0x08, 0x00,
  0x07, 0x00, 0x0c, 0x00, 0x10, 0x00, 0x14, 0x00, 0x0e, 0x00, 0x00, 0x00,
  0x00, 0x00, 0x00, 0x02, 0x10, 0x00, 0x00, 0x00, 0x06, 0x00, 0x00, 0x00,
  0x10, 0x00, 0x00, 0x00, 0x2c, 0x00, 0x00, 0x00, 0x01, 0x00, 0x00, 0x00,
  0x02, 0x00, 0x00, 0x00, 0x18, 0x00, 0x00, 0x00, 0x73, 0x65, 0x71, 0x75,
  0x65, 0x6e, 0x74, 0x69, 0x61, 0x6c, 0x2f, 0x66, 0x6c, 0x61, 0x74, 0x74,
  0x65, 0x6e, 0x2f, 0x43, 0x6f, 0x6e, 0x73, 0x74, 0x00, 0x00, 0x00, 0x00,
  0x34, 0xfd, 0xff, 0xff, 0x3e, 0xfe, 0xff, 0xff, 0x04, 0x00, 0x00, 0x00,
  0x10, 0x00, 0x00, 0x00, 0x1c, 0x8d, 0x7f, 0xc0, 0x8e, 0xb0, 0x94, 0xc0,
  0x7e, 0xff, 0xab, 0x3e, 0x03, 0x40, 0x3d, 0x40, 0x26, 0xfe, 0xff, 0xff,
  0x10, 0x00, 0x00, 0x00, 0x05, 0x00, 0x00, 0x00, 0x10, 0x00, 0x00, 0x00,
  0x44, 0x00, 0x00, 0x00, 0x01, 0x00, 0x00, 0x00, 0x04, 0x00, 0x00, 0x00,
  0x32, 0x00, 0x00, 0x00, 0x73, 0x65, 0x71, 0x75, 0x65, 0x6e, 0x74, 0x69,
  0x61, 0x6c, 0x2f, 0x64, 0x65, 0x6e, 0x73, 0x65, 0x5f, 0x31, 0x2f, 0x42,
  0x69, 0x61, 0x73, 0x41, 0x64, 0x64, 0x2f, 0x52, 0x65, 0x61, 0x64, 0x56,
  0x61, 0x72, 0x69, 0x61, 0x62, 0x6c, 0x65, 0x4f, 0x70, 0x2f, 0x72, 0x65,
  0x73, 0x6f, 0x75, 0x72, 0x63, 0x65, 0x00, 0x00, 0xa8, 0xfd, 0xff, 0xff,
  0xb2, 0xfe, 0xff, 0xff, 0x04, 0x00, 0x00, 0x00, 0x40, 0x00, 0x00, 0x00,
  0x7d, 0x62, 0xf9, 0xbe, 0xe4, 0xc1, 0x61, 0xbe, 0x1a, 0x53, 0xb2, 0x3f,
  0x63, 0x2c, 0xda, 0x3e, 0x95, 0x6a, 0x57, 0xbf, 0x26, 0xaa, 0x25, 0xbd,
  0x0f, 0x1c, 0x98, 0x3e, 0x16, 0x3f, 0xdf, 0xbe, 0xb9, 0x74, 0x95, 0xbe,
  0xac, 0xe0, 0xb5, 0x3f, 0xee, 0x8a, 0x67, 0x3f, 0x64, 0xe0, 0x8a, 0x3e,
  0xf3, 0xa0, 0x5d, 0xbf, 0x19, 0x7b, 0x90, 0x3e, 0xa5, 0xd4, 0xfa, 0xbd,
  0x18, 0xdf, 0xb0, 0x3f, 0xca, 0xfe, 0xff, 0xff, 0x10, 0x00, 0x00, 0x00,
  0x04, 0x00, 0x00, 0x00, 0x10, 0x00, 0x00, 0x00, 0x44, 0x00, 0x00, 0x00,
  0x01, 0x00, 0x00, 0x00, 0x10, 0x00, 0x00, 0x00, 0x30, 0x00, 0x00, 0x00,
  0x73, 0x65, 0x71, 0x75, 0x65, 0x6e, 0x74, 0x69, 0x61, 0x6c, 0x2f, 0x64,
  0x65, 0x6e, 0x73, 0x65, 0x2f, 0x42, 0x69, 0x61, 0x73, 0x41, 0x64, 0x64,
  0x2f, 0x52, 0x65, 0x61, 0x64, 0x56, 0x61, 0x72, 0x69, 0x61, 0x62, 0x6c,
  0x65, 0x4f, 0x70, 0x2f, 0x72, 0x65, 0x73, 0x6f, 0x75, 0x72, 0x63, 0x65,
  0x00, 0x00, 0x00, 0x00, 0x4c, 0xfe, 0xff, 0xff, 0x56, 0xff, 0xff, 0xff,
  0x04, 0x00, 0x00, 0x00, 0x40, 0x00, 0x00, 0x00, 0x3d, 0xdb, 0x97, 0x3f,
  0x6c, 0x36, 0x7b, 0xbf, 0x55, 0x4f, 0x36, 0xbf, 0xb0, 0x48, 0x20, 0x3f,
  0xff, 0x36, 0x8a, 0x40, 0xb7, 0x7f, 0x61, 0xbe, 0x44, 0xab, 0xdd, 0xbe,
  0xf0, 0xab, 0xfb, 0xbe, 0x1e, 0x4d, 0x2a, 0xbf, 0xa7, 0x9e, 0x83, 0xbf,
  0xed, 0xe6, 0x3a, 0xbf, 0x07, 0xa9, 0x41, 0xbb, 0xb3, 0xc9, 0x80, 0xbf,
  0x6b, 0x52, 0x6c, 0xbe, 0xef, 0x23, 0x71, 0xbf, 0x2a, 0x9a, 0x2e, 0x3f,
  0x6e, 0xff, 0xff, 0xff, 0x10, 0x00, 0x00, 0x00, 0x03, 0x00, 0x00, 0x00,
  0x10, 0x00, 0x00, 0x00, 0x48, 0x00, 0x00, 0x00, 0x01, 0x00, 0x00, 0x00,
  0x10, 0x00, 0x00, 0x00, 0x33, 0x00, 0x00, 0x00, 0x73, 0x65, 0x71, 0x75,
  0x65, 0x6e, 0x74, 0x69, 0x61, 0x6c, 0x2f, 0x63, 0x6f, 0x6e, 0x76, 0x32,
  0x64, 0x5f, 0x31, 0x2f, 0x42, 0x69, 0x61, 0x73, 0x41, 0x64, 0x64, 0x2f,
  0x52, 0x65, 0x61, 0x64, 0x56, 0x61, 0x72, 0x69, 0x61, 0x62, 0x6c, 0x65,
  0x4f, 0x70, 0x2f, 0x72, 0x65, 0x73, 0x6f, 0x75, 0x72, 0x63, 0x65, 0x00,
  0x04, 0x00, 0x06, 0x00, 0x04, 0x00, 0x00, 0x00, 0x00, 0x00, 0x06, 0x00,
  0x08, 0x00, 0x04, 0x00, 0x06, 0x00, 0x00, 0x00, 0x04, 0x00, 0x00, 0x00,
  0x20, 0x00, 0x00, 0x00, 0x71, 0xdb, 0x77, 0xbf, 0xaa, 0xb5, 0xcb, 0xbf,
  0x6e, 0x5a, 0xc8, 0xbf, 0xf7, 0xb3, 0xdc, 0xbf, 0xd8, 0x33, 0x19, 0xbf,
  0x32, 0x79, 0x80, 0xbf, 0x0a, 0xd2, 0x7a, 0xbf, 0xab, 0x77, 0xfe, 0xbf,
  0x00, 0x00, 0x0e, 0x00, 0x14, 0x00, 0x04, 0x00, 0x00, 0x00, 0x08, 0x00,
  0x0c, 0x00, 0x10, 0x00, 0x0e, 0x00, 0x00, 0x00, 0x10, 0x00, 0x00, 0x00,
  0x02, 0x00, 0x00, 0x00, 0x10, 0x00, 0x00, 0x00, 0x44, 0x00, 0x00, 0x00,
  0x01, 0x00, 0x00, 0x00, 0x08, 0x00, 0x00, 0x00, 0x31, 0x00, 0x00, 0x00,
  0x73, 0x65, 0x71, 0x75, 0x65, 0x6e, 0x74, 0x69, 0x61, 0x6c, 0x2f, 0x63,
  0x6f, 0x6e, 0x76, 0x32, 0x64, 0x2f, 0x42, 0x69, 0x61, 0x73, 0x41, 0x64,
  0x64, 0x2f, 0x52, 0x65, 0x61, 0x64, 0x56, 0x61, 0x72, 0x69, 0x61, 0x62,
  0x6c, 0x65, 0x4f, 0x70, 0x2f, 0x72, 0x65, 0x73, 0x6f, 0x75, 0x72, 0x63,
  0x65, 0x00, 0x00, 0x00, 0x90, 0xff, 0xff, 0xff, 0x14, 0x00, 0x18, 0x00,
  0x04, 0x00, 0x00, 0x00, 0x08, 0x00, 0x0c, 0x00, 0x10, 0x00, 0x00, 0x00,
  0x00, 0x00, 0x14, 0x00, 0x14, 0x00, 0x00, 0x00, 0x14, 0x00, 0x00, 0x00,
  0x01, 0x00, 0x00, 0x00, 0x20, 0x00, 0x00, 0x00, 0x44, 0x00, 0x00, 0x00,
  0x2c, 0x00, 0x00, 0x00, 0x04, 0x00, 0x00, 0x00, 0x01, 0x00, 0x00, 0x00,
  0x40, 0x00, 0x00, 0x00, 0x03, 0x00, 0x00, 0x00, 0x01, 0x00, 0x00, 0x00,
  0x0c, 0x00, 0x00, 0x00, 0x63, 0x6f, 0x6e, 0x76, 0x32, 0x64, 0x5f, 0x69,
  0x6e, 0x70, 0x75, 0x74, 0x00, 0x00, 0x00, 0x00, 0x04, 0x00, 0x00, 0x00,
  0xff, 0xff, 0xff, 0xff, 0x40, 0x00, 0x00, 0x00, 0x03, 0x00, 0x00, 0x00,
  0x01, 0x00, 0x00, 0x00, 0xfc, 0xff, 0xff, 0xff, 0x04, 0x00, 0x04, 0x00,
  0x04, 0x00, 0x00, 0x00
};

unsigned int model_tflite_len = 13120;// Fill the int in `src/model.cc` here